<unk>	0
<s>	0
</s>	0
▁de	-3.15358
,	-3.17666
.	-3.46176
s	-3.49811
▁a	-3.75266
▁e	-3.88882
▁o	-4.03387
▁em	-4.22778
▁do	-4.39367
▁	-4.4287
▁da	-4.48022
▁que	-4.6588
▁no	-4.84125
▁um	-4.85927
-	-4.91548
▁"	-4.96654
▁com	-5.01302
▁foi	-5.05723
▁na	-5.09399
▁para	-5.11827
▁uma	-5.12756
a	-5.19188
▁(	-5.22814
▁é	-5.24391
r	-5.25739
▁por	-5.33404
"	-5.35311
▁como	-5.51964
m	-5.58521
o	-5.58577
#	-5.5862
▁os	-5.60223
▁#	-5.61031
)	-5.65175
u	-5.70344
▁se	-5.81262
▁ao	-5.93043
▁seu	-5.93442
▁dos	-5.93778
▁sua	-5.94965
se	-6.0038
ndo	-6.01561
do	-6.02098
▁ele	-6.13404
▁mais	-6.1514
da	-6.15229
e	-6.15824
▁as	-6.19481
▁não	-6.309
▁pela	-6.32545
▁são	-6.3631
:	-6.37182
▁à	-6.38119
i	-6.3894
l	-6.4032
c	-6.40807
▁pelo	-6.41579
▁também	-6.42005
",	-6.43001
n	-6.46687
t	-6.55195
▁ser	-6.66101
ou	-6.68319
ram	-6.70274
▁das	-6.71259
▁entre	-6.72427
es	-6.73417
mente	-6.73658
g	-6.74056
ra	-6.75882
d	-6.76534
▁ou	-6.76611
),	-6.78081
;	-6.7922
▁foram	-6.80779
va	-6.82549
to	-6.84368
▁anos	-6.85272
na	-6.85694
ta	-6.85957
▁mas	-6.86268
▁re	-6.87472
ção	-6.87892
de	-6.88073
la	-6.89143
▁tem	-6.8942
▁era	-6.90227
".	-6.90273
▁durante	-6.90833
▁dia	-6.9217
y	-6.93069
re	-6.9782
p	-6.9814
▁mesmo	-7.01957
f	-7.02905
▁filme	-7.03026
ia	-7.03325
h	-7.03329
▁in	-7.04207
b	-7.04774
).	-7.054
▁primeiro	-7.05881
ar	-7.06018
lo	-7.06839
ca	-7.07628
ma	-7.07763
▁onde	-7.09518
▁após	-7.09639
▁the	-7.10017
▁depois	-7.10303
▁sobre	-7.10668
▁até	-7.10705
te	-7.1102
▁ano	-7.11036
le	-7.12305
no	-7.13839
▁quando	-7.13944
í	-7.16445
▁seus	-7.19932
em	-7.20291
▁primeira	-7.20441
co	-7.21059
▁cidade	-7.21836
▁1	-7.23005
▁d	-7.23089
é	-7.23605
is	-7.24484
ce	-7.27466
dos	-7.27567
ne	-7.2851
/	-7.29244
▁parte	-7.29658
ro	-7.30619
▁contra	-7.3137
'	-7.3161
▁dois	-7.32158
▁18	-7.32674
di	-7.32679
▁paulo	-7.3503
▁ela	-7.3524
▁-	-7.36021
ado	-7.37743
ti	-7.38002
▁está	-7.3873
▁grande	-7.38815
os	-7.40687
▁janeiro	-7.40796
▁sendo	-7.40895
k	-7.41095
▁co	-7.42679
▁segundo	-7.42802
z	-7.42824
▁norte	-7.43457
ções	-7.43838
am	-7.44402
das	-7.44562
▁i	-7.44599
▁este	-7.44892
▁15	-7.4492
▁brasil	-7.44987
▁nos	-7.45099
▁nome	-7.4653
ri	-7.47118
ão	-7.47122
▁c	-7.48707
▁grupo	-7.49938
er	-7.50332
▁3	-7.50336
v	-7.5079
▁2	-7.50977
á	-7.51306
li	-7.51459
▁nas	-7.52101
▁estado	-7.52181
▁rio	-7.5238
al	-7.52384
▁guerra	-7.52541
w	-7.52591
▁três	-7.52754
▁maior	-7.53269
ga	-7.53577
▁outros	-7.53797
▁final	-7.53936
▁ainda	-7.53936
que	-7.55288
▁ter	-7.55805
▁história	-7.57055
▁s	-7.57878
▁militar	-7.58236
vi	-7.58452
ria	-7.59467
▁5	-7.59763
▁cerca	-7.60194
in	-7.61004
▁w	-7.61252
▁já	-7.61926
ba	-7.62404
mo	-7.62768
▁la	-7.62995
mi	-7.64006
▁4	-7.64285
x	-7.64512
▁segunda	-7.64632
▁ex	-7.64759
▁morte	-7.66594
▁nacional	-7.66862
▁sido	-7.67072
▁desde	-7.67489
▁série	-7.68245
▁campeonato	-7.68521
ada	-7.68638
ci	-7.69083
▁maio	-7.69353
me	-7.69516
▁vez	-7.70043
▁corpo	-7.70133
▁abril	-7.70246
▁“	-7.71118
▁sul	-7.71674
ni	-7.71696
▁forma	-7.71938
▁suas	-7.7336
▁família	-7.7346
▁possui	-7.73585
▁apenas	-7.73586
on	-7.73687
▁além	-7.73793
▁filho	-7.74232
▁mundial	-7.74308
▁aos	-7.74359
▁exército	-7.7462
▁pode	-7.74796
▁ua	-7.7503
▁muito	-7.75094
▁ma	-7.75306
▁esta	-7.75382
▁universidade	-7.75893
▁estados	-7.76471
▁temporada	-7.76888
▁região	-7.76935
go	-7.77946
en	-7.78892
▁mar	-7.7895
▁carreira	-7.78978
pe	-7.78989
▁sistema	-7.79546
nte	-7.79591
▁casa	-7.7982
▁divisão	-7.8007
ve	-7.80127
▁km	-7.80548
▁teve	-7.8064
▁outubro	-7.80953
▁vida	-7.81071
▁al	-7.81316
▁of	-7.81848
▁le	-7.81885
▁brasileira	-7.81982
▁março	-7.82309
▁p	-7.82501
▁vi	-7.82998
▁alemão	-7.83935
▁10	-7.84647
▁junho	-7.84798
▁álbum	-7.84921
pa	-7.851
ter	-7.855
▁2014	-7.85667
▁ba	-7.85807
▁pro	-7.85913
▁nova	-7.86216
1	-7.86602
po	-7.86817
▁di	-7.87374
io	-7.87623
▁tempo	-7.87677
▁duas	-7.87739
▁período	-7.8807
▁k	-7.88071
▁mundo	-7.8831
▁julho	-7.88432
▁fez	-7.88581
▁m	-7.88797
▁dirigido	-7.89026
▁então	-7.89399
ista	-7.90845
▁unidos	-7.91538
▁b	-7.91568
▁ra	-7.91645
us	-7.91776
▁sa	-7.91798
▁2013	-7.91945
▁josé	-7.91952
▁pelos	-7.92315
▁num	-7.92328
▁mo	-7.92427
americano	-7.92492
ver	-7.92913
▁agosto	-7.93448
▁ca	-7.93691
▁governo	-7.94204
▁estava	-7.94343
▁todos	-7.94386
▁6	-7.94521
▁enquanto	-7.94583
▁devido	-7.94729
▁jogo	-7.95378
st	-7.95417
ita	-7.95718
as	-7.95874
▁copa	-7.96423
")	-7.96472
▁con	-7.9653
▁antes	-7.96781
▁brasileiro	-7.9694
▁novembro	-7.97025
▁conhecido	-7.97627
2	-7.97646
▁equipe	-7.9772
the	-7.98174
▁eles	-7.98326
ck	-7.98394
▁tinha	-7.98505
ha	-7.986
▁sem	-7.98788
▁fevereiro	-7.98864
vo	-7.98903
▁órbita	-7.99129
▁7	-7.99385
▁isso	-7.99855
▁17	-7.99937
mento	-8.00353
an	-8.00607
ge	-8.0068
▁gênero	-8.00767
▁dezembro	-8.01007
▁qual	-8.01111
▁g	-8.01426
▁t	-8.01736
▁alguns	-8.02371
▁partir	-8.02476
▁assim	-8.02783
▁havia	-8.02933
▁setembro	-8.03059
▁música	-8.03169
el	-8.03418
3	-8.03459
▁me	-8.03643
▁tornou	-8.04091
bu	-8.04714
▁cada	-8.05017
it	-8.05404
▁tendo	-8.06196
▁14	-8.06256
▁objeto	-8.06338
▁época	-8.06863
ó	-8.06917
▁so	-8.07265
▁ro	-8.07579
th	-8.0765
idade	-8.07678
▁ar	-8.07718
▁bem	-8.0798
res	-8.08042
▁lançado	-8.08508
▁li	-8.08515
si	-8.08892
ja	-8.08935
be	-8.09138
bi	-8.0936
gi	-8.09985
▁12	-8.10044
ir	-8.10345
fe	-8.1055
▁pa	-8.1062
▁título	-8.10729
▁luta	-8.10783
▁novo	-8.10826
▁quatro	-8.10966
▁20	-8.11203
▁16	-8.11361
▁melhor	-8.11501
através	-8.11871
or	-8.12766
ing	-8.12811
um	-8.12861
ação	-8.13378
▁to	-8.13671
▁escrito	-8.1378
▁futebol	-8.13792
▁11	-8.138
▁maria	-8.144
bo	-8.146
▁pai	-8.14611
4	-8.14646
▁sob	-8.15091
▁partido	-8.15116
▁sol	-8.15402
▁presidente	-8.15911
il	-8.16215
vários	-8.16459
▁seleção	-8.16819
▁joão	-8.16844
▁federal	-8.16977
▁2014,	-8.18087
▁país	-8.18301
▁há	-8.18623
son	-8.18775
ch	-8.18856
▁outro	-8.19071
▁conta	-8.19284
▁lado	-8.19473
▁jogos	-8.19929
▁clube	-8.20048
ul	-8.20097
▁principal	-8.2025
▁início	-8.20551
▁–	-8.20868
▁versão	-8.20957
▁8	-8.21177
▁volta	-8.21182
▁edição	-8.21234
ka	-8.21329
qui	-8.2139
▁dias	-8.21516
tor	-8.21574
man	-8.21596
▁base	-8.21776
▁ga	-8.21925
▁banda	-8.2223
vam	-8.22671
▁lo	-8.23157
▁(19	-8.23271
ismo	-8.24029
▁começou	-8.24291
▁vezes	-8.24441
tu	-8.24613
j	-8.24885
0	-8.25354
▁ha	-8.25459
▁9	-8.25469
▁relação	-8.26129
▁entanto	-8.26294
▁local	-8.26445
▁lugar	-8.26524
▁recebeu	-8.26547
▁tarde	-8.26837
▁outras	-8.27692
▁diâmetro	-8.28053
▁pessoas	-8.28412
▁trabalho	-8.28672
▁infantaria	-8.28765
ke	-8.28845
▁mudo	-8.28952
▁comissão	-8.28956
▁be	-8.29061
▁v	-8.2914
▁l	-8.29737
▁lista	-8.29907
▁f	-8.30121
▁centro	-8.30316
▁meio	-8.30437
▁igreja	-8.30963
▁13	-8.31597
▁curta	-8.31897
fi	-8.32076
▁produção	-8.32081
▁sub	-8.3227
ll	-8.3229
▁rei	-8.32324
▁pre	-8.32553
pi	-8.32634
ões	-8.32766
▁canção	-8.32798
ng	-8.3323
car	-8.3448
▁en	-8.34835
▁acordo	-8.34848
mar	-8.34919
ntes	-8.35143
ry	-8.35166
▁pontos	-8.35176
un	-8.35209
▁sucesso	-8.35225
6	-8.35767
▁si	-8.35847
▁("	-8.36079
cu	-8.36139
ú	-8.3615
du	-8.36313
&	-8.36333
pesar	-8.36383
”	-8.36488
▁política	-8.3649
▁ka	-8.36712
lt	-8.37714
ho	-8.37819
ados	-8.38027
▁descoberta	-8.38126
▁atualmente	-8.38196
dor	-8.38582
▁vária	-8.38669
ur	-8.38801
metragem	-8.39113
▁distância	-8.39313
▁empresa	-8.39551
▁fa	-8.39626
▁santa	-8.39915
▁passou	-8.3996
▁carlos	-8.4074
▁ta	-8.4082
▁su	-8.41259
▁área	-8.41379
▁car	-8.4138
▁per	-8.41698
▁eram	-8.41895
▁portugal	-8.4196
▁planeta	-8.41987
▁oficial	-8.42057
▁po	-8.42547
▁caso	-8.42593
▁leva	-8.4277
▁projeto	-8.42853
▁2011	-8.42886
▁escola	-8.43145
ente	-8.43391
ida	-8.43661
tos	-8.43686
▁descoberto	-8.43779
per	-8.43953
rie	-8.44268
▁h	-8.44292
▁30	-8.44306
▁número	-8.44591
▁origem	-8.44823
▁ja	-8.45217
▁25	-8.45499
▁fim	-8.45559
▁pe	-8.45659
▁localizado	-8.45731
▁x	-8.45782
ando	-8.45955
▁bi	-8.46052
▁espécie	-8.46086
▁junto	-8.46429
▁pouco	-8.46968
▁fase	-8.47013
▁chamado	-8.4711
▁mil	-8.4717
▁programa	-8.47368
sse	-8.47767
▁man	-8.47925
tra	-8.47937
▁seguinte	-8.48075
jo	-8.48461
▁vice	-8.48848
▁r	-8.49482
▁posição	-8.49523
8	-8.49805
▁vitória	-8.49893
▁esse	-8.50059
▁cinco	-8.50447
za	-8.50477
▁19	-8.5071
▁unidade	-8.50807
7	-8.51207
▁j	-8.51528
▁podem	-8.5161
▁liga	-8.51698
ed	-8.51731
der	-8.51893
▁internacional	-8.52228
▁essa	-8.52339
tri	-8.52424
▁n	-8.52627
▁algumas	-8.52641
▁lei	-8.5287
▁ditadura	-8.52906
▁embora	-8.53195
▁eleito	-8.534
▁fazer	-8.53423
▁livro	-8.5364
▁muitos	-8.54627
▁mi	-8.54757
▁21	-8.54959
▁só	-8.55182
▁disso	-8.55487
ie	-8.55566
con	-8.55812
▁he	-8.55889
▁griffith	-8.56378
▁verdade	-8.5659
▁desenvolvimento	-8.57087
▁te	-8.57094
sp	-8.57262
bra	-8.57426
des	-8.57455
▁classificado	-8.57563
ficou	-8.57665
▁votos	-8.57772
▁geral	-8.57798
▁cor	-8.57829
com	-8.58055
ça	-8.58074
▁ce	-8.58192
▁and	-8.58292
▁—	-8.5839
▁professor	-8.58746
▁seja	-8.59026
▁muita	-8.59034
▁faz	-8.59281
▁movimento	-8.59424
ine	-8.59527
et	-8.59623
cia	-8.59823
▁torneio	-8.59976
tas	-8.60102
fa	-8.60447
ê	-8.60586
▁ii	-8.60921
▁du	-8.61002
ki	-8.61034
▁24	-8.61486
▁campo	-8.61487
chi	-8.61532
▁popular	-8.61574
▁incluindo	-8.62385
tou	-8.62474
▁27	-8.62567
▁causa	-8.62582
▁lu	-8.62801
▁teria	-8.62931
▁jogador	-8.62969
ência	-8.6306
dia	-8.63089
tar	-8.63096
▁22	-8.63115
▁23	-8.63186
▁milhões	-8.63202
▁terceiro	-8.63202
▁mesma	-8.63209
▁cinema	-8.63215
▁estão	-8.63262
▁pois	-8.63299
▁porém	-8.63462
mos	-8.63496
▁longo	-8.63538
he	-8.63615
▁ver	-8.63664
▁2014.	-8.63718
▁linha	-8.63757
▁pi	-8.63827
▁biografia	-8.64221
▁go	-8.64228
▁irmão	-8.64322
▁comédia	-8.64471
nos	-8.64565
▁transnetuniano	-8.64727
wa	-8.64816
nt	-8.65447
nha	-8.65528
▁direito	-8.6567
rem	-8.65758
▁drama	-8.65945
▁governador	-8.66006
ten	-8.6602
▁serviu	-8.66087
▁tri	-8.66216
amento	-8.66342
5	-8.66696
ço	-8.66832
tion	-8.67076
cha	-8.67324
ário	-8.67638
▁&	-8.67642
▁serviço	-8.67809
▁membros	-8.67986
▁exemplo	-8.68378
▁papel	-8.6839
▁disse	-8.68563
che	-8.68711
▁28	-8.68945
▁real	-8.69175
▁diretor	-8.69188
▁fi	-8.69193
▁todas	-8.69286
▁filha	-8.69468
▁união	-8.69472
▁social	-8.69621
ven	-8.69648
▁passa	-8.69674
▁prêmio	-8.69693
▁rede	-8.69702
▁eleições	-8.69716
br	-8.69823
ira	-8.69893
ad	-8.69953
▁nasceu	-8.70049
▁for	-8.70311
▁político	-8.70526
▁marca	-8.70554
▁an	-8.70801
▁público	-8.7081
▁reino	-8.7082
▁menos	-8.70872
▁todo	-8.71252
ber	-8.71505
amp	-8.71616
▁processo	-8.71654
▁década	-8.71655
▁deputado	-8.71694
tivo	-8.72154
▁competição	-8.72167
▁distrito	-8.72242
▁cargo	-8.72273
▁nomeado	-8.72416
▁ri	-8.72726
tiva	-8.72799
ze	-8.7281
gt	-8.72968
▁tv	-8.73027
tão	-8.73248
▁seria	-8.73376
▁disputa	-8.73453
▁portuguesa	-8.73556
▁2012	-8.73714
▁chegou	-8.73836
▁dentro	-8.73846
im	-8.73977
▁encontra	-8.73985
▁século	-8.74279
▁bar	-8.75084
▁periélio	-8.75248
ina	-8.75259
▁produzido	-8.75289
dores	-8.75319
▁mu	-8.75393
zo	-8.75415
tt	-8.75713
▁fora	-8.758
▁políticos	-8.75819
9	-8.75836
ton	-8.76288
▁primeiros	-8.76297
ssa	-8.7643
▁u	-8.76483
▁costa	-8.76607
▁26	-8.76642
▁mostra	-8.76717
▁uso	-8.77196
▁membro	-8.77475
ido	-8.77612
▁logo	-8.77719
gu	-8.77951
▁principais	-8.78135
▁fica	-8.78145
▁silva	-8.78342
▁capital	-8.78435
lu	-8.78677
▁participou	-8.78722
ais	-8.78961
alemanha	-8.79298
▁fe	-8.79299
▁semieixo	-8.79313
pro	-8.79381
–	-8.79394
▁desta	-8.79435
▁mal	-8.79507
▁magnitude	-8.7961
tro	-8.79715
les	-8.79738
▁arte	-8.79773
▁inter	-8.80056
▁absoluta	-8.80241
▁frente	-8.80247
▁fo	-8.80329
▁bo	-8.80374
▁tal	-8.80377
land	-8.80443
▁2007	-8.80606
▁outra	-8.80711
▁único	-8.80805
hi	-8.81085
▁interior	-8.81107
▁lançamento	-8.81114
▁venceu	-8.81453
▁disco	-8.81645
▁revista	-8.81734
ino	-8.81783
▁mãe	-8.81791
]]	-8.82025
▁ru	-8.8228
▁estúdio	-8.82321
▁ne	-8.82627
▁29	-8.82629
ol	-8.82819
▁super	-8.82886
id	-8.83091
tado	-8.83169
▁ho	-8.83229
▁2002	-8.836
▁especial	-8.83647
▁último	-8.83659
por	-8.83786
ô	-8.83993
▁2003	-8.83997
▁sal	-8.84139
▁ni	-8.84161
▁meses	-8.84196
▁estadual	-8.84481
▁quais	-8.84486
▁ve	-8.845
▁dados	-8.84907
tal	-8.84998
▁obras	-8.85101
▁contrato	-8.852
▁preso	-8.85287
▁'	-8.85336
▁profissional	-8.85422
▁pedro	-8.85422
ya	-8.85664
▁conquistou	-8.85737
▁im	-8.85815
sta	-8.85961
▁frança	-8.86054
▁novamente	-8.86069
▁idade	-8.86163
cas	-8.86292
fo	-8.8635
▁par	-8.86447
▁terra	-8.86615
▁categoria	-8.86865
▁poder	-8.86899
▁evento	-8.86904
▁hoje	-8.87024
ly	-8.87322
▁tra	-8.87336
▁1999	-8.8734
▁canal	-8.87408
▁bairro	-8.87651
▁ordem	-8.87652
▁pan	-8.87748
at	-8.8827
▁excentricidade	-8.88297
▁central	-8.88321
gr	-8.88576
▁tipo	-8.88605
▁2017	-8.88719
▁português	-8.88948
▁2015	-8.88979
são	-8.89005
los	-8.89019
▁2018	-8.89063
pre	-8.892
▁[[	-8.89277
▁organização	-8.89302
rá	-8.89392
▁alta	-8.89432
▁afélio	-8.89602
▁2005	-8.89641
▁ju	-8.89663
▁resultado	-8.89682
izado	-8.89742
▁maioria	-8.89795
je	-8.89829
ff	-8.89849
cio	-8.89884
▁musical	-8.89974
▁single	-8.90006
▁água	-8.90099
▁possível	-8.90261
▁general	-8.90372
▁conhecida	-8.90592
division	-8.90592
▁república	-8.90592
▁quase	-8.90595
▁gra	-8.90672
ã	-8.90776
▁feito	-8.90788
▁prisão	-8.90932
▁toda	-8.91055
▁ti	-8.91065
▁fato	-8.9121
▁seis	-8.91309
▁diferentes	-8.91339
xi	-8.91339
▁can	-8.91366
ic	-8.9145
las	-8.91507
▁protegida	-8.91592
▁televisão	-8.91592
▁europeia	-8.91593
▁val	-8.91646
▁estavam	-8.91668
▁mor	-8.91695
▁ouro	-8.91731
lhe	-8.91894
eu	-8.91956
▁estreia	-8.91959
▁força	-8.92037
den	-8.92049
▁conjunto	-8.92265
▁jovem	-8.92265
▁militante	-8.92318
▁chamada	-8.92459
▁morto	-8.9253
▁atual	-8.92655
▁países	-8.92869
▁importante	-8.93019
adas	-8.932
▁2008	-8.93203
mu	-8.93397
▁têm	-8.93405
▁superior	-8.93464
▁obra	-8.93473
mina	-8.93535
▁batalha	-8.93623
▁celeste	-8.93628
▁participação	-8.93667
▁próprio	-8.93716
▁ir	-8.93723
▁cha	-8.93751
tia	-8.93882
▁solar	-8.94164
▁rua	-8.94215
▁grandes	-8.9465
▁informações	-8.94682
▁conquista	-8.94771
20	-8.94835
ização	-8.94911
▁posteriormente	-8.95021
cul	-8.95104
sen	-8.95228
ações	-8.9523
▁construção	-8.95347
▁realizado	-8.9537
▁tanto	-8.95413
▁bu	-8.95471
▁criado	-8.95588
▁momento	-8.95791
ide	-8.95891
stra	-8.95981
▁cinturão	-8.96045
▁formação	-8.9605
▁segurança	-8.96092
▁morreu	-8.96093
▁considerado	-8.96361
▁ganhou	-8.96396
▁apoio	-8.96399
▁francisco	-8.96406
ix	-8.96439
▁américa	-8.96467
til	-8.96527
▁lançou	-8.96748
min	-8.96838
ana	-8.96921
▁time	-8.96958
▁her	-8.97206
cho	-8.97309
▁província	-8.97514
▁2000	-8.97523
nda	-8.97537
▁jo	-8.97546
rio	-8.97574
nd	-8.97632
▁estrelado	-8.9766
▁ben	-8.97713
ment	-8.98028
▁atuou	-8.98176
▁autor	-8.98299
ito	-8.98566
▁santo	-8.98573
▁estrutura	-8.98669
pu	-8.98736
▁paris	-8.98787
▁john	-8.98854
▁2012,	-8.98873
▁língua	-8.98875
via	-8.98931
ler	-8.98955
▁clubes	-8.99007
ante	-8.99033
pp	-8.9911
ko	-8.99195
30	-8.99202
ct	-8.99334
mor	-8.9945
▁candidato	-8.99525
▁campeão	-8.99615
▁povo	-8.99672
▁tamanho	-8.99974
gen	-9.00214
ku	-9.00246
▁município	-9.00275
▁br	-9.00276
istas	-9.00349
▁2001	-9.00379
▁new	-9.00574
▁forças	-9.01054
▁própria	-9.01813
▁2010	-9.01903
▁mortos	-9.0215
▁museu	-9.02185
▁neste	-9.0222
▁paulista	-9.02221
▁estação	-9.02227
00	-9.02314
agem	-9.02502
▁qualquer	-9.0257
▁seguida	-9.02933
▁trata	-9.03044
]	-9.03284
▁personagem	-9.03308
▁última	-9.03308
par	-9.03495
▁ko	-9.03603
▁nunca	-9.03685
▁ambos	-9.03686
▁francês	-9.03686
▁decisão	-9.03688
▁data	-9.03769
▁semana	-9.03822
▁ocorreu	-9.03883
▁tu	-9.03944
▁saúde	-9.04064
eira	-9.04082
▁sempre	-9.04106
eiro	-9.04403
▁antônio	-9.04826
▁conselho	-9.04826
▁eleição	-9.0483
ros	-9.04885
iano	-9.04905
men	-9.04948
▁filmes	-9.04963
▁modelo	-9.0497
ig	-9.04986
▁câmara	-9.05209
▁esposa	-9.05209
▁civil	-9.05213
ley	-9.05407
▁trans	-9.05518
▁/	-9.05634
oso	-9.05674
▁império	-9.05678
▁ponto	-9.05708
▁hu	-9.05711
▁características	-9.05892
▁quem	-9.05914
ru	-9.0597
nia	-9.05983
▁médico	-9.06089
lho	-9.0622
tura	-9.06257
(	-9.06335
fer	-9.06671
▁diversos	-9.06756
▁única	-9.06757
▁ali	-9.06795
juntamente	-9.06832
▁lá	-9.07003
nta	-9.07076
▁atua	-9.07082
▁gu	-9.07107
▁1970	-9.07159
ion	-9.07237
▁pequeno	-9.07295
▁militares	-9.07317
▁companhia	-9.07539
▁polícia	-9.07543
tá	-9.07564
cor	-9.07629
gue	-9.07642
▁conseguiu	-9.07667
ex	-9.07713
sh	-9.07713
▁)	-9.07763
▁população	-9.07934
▁curso	-9.08287
▁campanha	-9.08331
▁nesse	-9.0837
dora	-9.08384
nce	-9.08391
▁técnico	-9.08398
▁ação	-9.08501
▁cantora	-9.08548
▁natural	-9.087
▁avião	-9.08731
▁mulheres	-9.08846
”,	-9.09015
lia	-9.0902
▁senador	-9.09043
▁minas	-9.09238
▁cu	-9.09276
▁episódio	-9.09336
▁medalha	-9.09523
▁locais	-9.09524
▁houve	-9.09525
▁quanto	-9.09545
▁2019	-9.09552
cos	-9.09654
▁100	-9.09846
▁2015,	-9.09872
▁antiga	-9.09893
▁mudou	-9.10271
▁fosse	-9.10314
▁porto	-9.10439
▁filhos	-9.10609
ren	-9.10764
lin	-9.10829
▁ajuda	-9.10942
▁ci	-9.1101
ner	-9.11032
▁deputados	-9.11088
▁kuiper	-9.1114
▁baseado	-9.11144
▁mon	-9.11236
▁voo	-9.11441
▁instituto	-9.11567
▁cabeça	-9.11637
au	-9.1188
▁nossa	-9.11958
▁regime	-9.11995
▁associação	-9.12034
▁estimado	-9.12036
▁motor	-9.12127
▁jogadores	-9.12183
mon	-9.12291
▁principalmente	-9.12309
gem	-9.12312
▁infante	-9.1237
▁alemanha	-9.1239
▁sede	-9.12507
▁lançada	-9.12534
aram	-9.12584
▁criada	-9.12591
ang	-9.12667
▁terceira	-9.12783
▁europa	-9.1281
▁desaparecidos	-9.12892
nas	-9.13043
▁total	-9.13147
▁mulher	-9.13154
ste	-9.13193
▁agrupamento	-9.13197
▁festival	-9.13197
▁iniciou	-9.13219
▁derrota	-9.13239
▁gerais	-9.13255
▁original	-9.13497
▁território	-9.13545
▁branco	-9.13614
▁classe	-9.13616
té	-9.13643
ph	-9.13652
ju	-9.13846
▁monte	-9.13975
iro	-9.13986
▁1973	-9.14042
ny	-9.14044
▁educação	-9.1405
▁amor	-9.1411
▁mandato	-9.1412
▁marcou	-9.14276
▁jornal	-9.1434
▁usado	-9.14594
▁inglês	-9.14614
▁santos	-9.14621
▁grupos	-9.14673
▁porque	-9.14708
fic	-9.14778
▁cemitério	-9.14875
▁combate	-9.14969
▁homem	-9.14979
▁music	-9.15047
▁deste	-9.15053
zi	-9.15257
cal	-9.15368
▁imperador	-9.15435
▁pessoa	-9.15473
ran	-9.15535
shi	-9.15675
▁média	-9.15717
▁objetivo	-9.15724
▁sete	-9.15791
▁corre	-9.15804
tic	-9.15868
inha	-9.16136
▁disputou	-9.16151
▁rádio	-9.16151
▁entrou	-9.16151
▁estreou	-9.16205
▁lhe	-9.16447
▁estilo	-9.16581
▁gol	-9.16758
ac	-9.16846
cer	-9.1699
ger	-9.17109
19	-9.17182
▁fu	-9.17232
▁gar	-9.17255
▁aviões	-9.17447
▁orbital	-9.17528
ite	-9.17595
▁auto	-9.17602
▁rock	-9.17839
▁desaparecimento	-9.17879
▁estudos	-9.17975
▁san	-9.18293
▁faculdade	-9.18316
▁diversas	-9.18316
▁acabou	-9.18316
▁livre	-9.18316
▁1909	-9.18326
▁nível	-9.1833
gar	-9.18408
▁atividades	-9.18464
▁varia	-9.18535
▁boa	-9.1874
▁1998	-9.18772
ária	-9.18779
▁cal	-9.1889
▁is	-9.18935
▁chefe	-9.18974
▁perto	-9.18987
!	-9.19004
tur	-9.19017
mp	-9.19419
▁oeste	-9.19467
▁site	-9.19546
qu	-9.19631
▁busca	-9.19693
fu	-9.19947
▁vai	-9.19982
▁anão	-9.20059
sto	-9.20077
tin	-9.20166
eta	-9.20218
▁direitos	-9.20326
▁trabalhou	-9.20464
▁personagens	-9.20528
▁mês	-9.20568
▁st	-9.20575
▁vídeo	-9.20673
▁fer	-9.20884
▁carta	-9.20922
▁direção	-9.20977
▁gestor	-9.20987
▁pessoal	-9.21151
▁cruz	-9.21175
▁esteve	-9.21254
▁histórico	-9.21427
lan	-9.21721
▁cultura	-9.21804
▁irmãos	-9.21809
50	-9.21871
ot	-9.21886
ense	-9.21954
wi	-9.21971
▁luiz	-9.21974
▁pelas	-9.22305
▁obteve	-9.22334
▁sociedade	-9.22334
▁assumi	-9.22366
:"	-9.22376
▁tecnologia	-9.22392
▁1969	-9.22444
tico	-9.22552
▁50	-9.22574
cr	-9.22652
▁hi	-9.22774
▁paróquia	-9.22791
▁acesso	-9.22793
10	-9.22947
ologia	-9.23062
tru	-9.23117
tica	-9.23117
ji	-9.23122
▁novos	-9.23194
▁independente	-9.2325
▁recorde	-9.23408
ue	-9.23425
21	-9.23499
mas	-9.23616
▁nu	-9.23695
▁1913	-9.23721
▁31	-9.23767
▁agentes	-9.23779
ster	-9.23837
▁alto	-9.23889
▁via	-9.24172
iana	-9.24245
▁elenco	-9.24285
▁vila	-9.24286
▁1,	-9.24379
▁antigo	-9.24482
▁realizada	-9.2459
▁noite	-9.24607
▁quarto	-9.24638
▁inicialmente	-9.24697
▁significa	-9.247
▁show	-9.24768
est	-9.24991
▁maiores	-9.25508
▁2010,	-9.25714
▁dupla	-9.26047
▁escreveu	-9.26155
▁começa	-9.26197
▁anti	-9.26249
we	-9.2632
▁pública	-9.26373
▁municipal	-9.26521
▁joga	-9.26638
▁arma	-9.26825
rt	-9.26887
▁estaduais	-9.26997
▁voltou	-9.27008
ável	-9.27017
nes	-9.2702
▁presente	-9.27049
▁operação	-9.27055
"),	-9.27312
▁1971	-9.27353
▁comunidade	-9.27358
yo	-9.27383
▁levou	-9.27476
ava	-9.27694
nal	-9.27808
▁melhores	-9.2788
▁q	-9.27973
▁nessa	-9.27988
▁poderia	-9.28137
▁estrela	-9.28224
▁senhora	-9.28293
▁continua	-9.2831
una	-9.28339
gens	-9.28339
▁partida	-9.28398
▁justiça	-9.2844
tada	-9.28688
▁company	-9.28926
▁1972	-9.28939
para	-9.28939
▁velho	-9.28943
▁th	-9.28979
nça	-9.29137
▁afirma	-9.29166
▁baixo	-9.29203
ham	-9.29369
▁japão	-9.29413
lica	-9.29423
▁faixa	-9.29462
▁ge	-9.29471
tes	-9.29574
▁baixa	-9.29644
▁próximo	-9.29855
berg	-9.29941
▁ilha	-9.30047
ica	-9.3007
▁vivo	-9.30071
▁tema	-9.3013
▁gi	-9.30166
bre	-9.3029
▁hospital	-9.30395
▁ministério	-9.30395
▁defesa	-9.30398
ral	-9.30404
▁torna	-9.30526
uma	-9.30655
98	-9.30684
▁modo	-9.30709
▁2006	-9.30819
mer	-9.30873
▁metros	-9.30886
▁controle	-9.3089
▁espaço	-9.3089
▁ensino	-9.30892
▁atriz	-9.30897
▁será	-9.31132
▁ator	-9.31377
-15	-9.31381
▁tornar	-9.31408
▁forte	-9.31415
▁inclui	-9.31436
▁diz	-9.31458
▁artes	-9.31474
-19	-9.31523
▁zona	-9.31565
len	-9.31726
▁sp	-9.31777
ec	-9.31851
▁homens	-9.31892
▁nesta	-9.31931
▁criação	-9.31963
ias	-9.31985
▁lisboa	-9.32013
▁tom	-9.3209
▁publicada	-9.32145
ministro	-9.32198
▁vale	-9.32228
▁compositor	-9.3232
▁palácio	-9.32393
dy	-9.32408
izada	-9.32409
ndi	-9.3241
▁love	-9.32427
▁tenta	-9.32636
han	-9.32792
▁assembleia	-9.32895
▁espanha	-9.32896
▁aviação	-9.32903
▁turno	-9.32947
▁golpe	-9.32963
ano	-9.32974
▁feita	-9.33005
▁casos	-9.332
$	-9.33215
▁minutos	-9.33216
”.	-9.33302
▁2004	-9.33312
lla	-9.33329
▁desse	-9.33377
▁escrita	-9.33403
▁relativa	-9.33403
▁1994	-9.33418
▁fundação	-9.33447
▁1.	-9.33501
80	-9.33504
▁(15	-9.33585
▁geralmente	-9.33659
▁horas	-9.33674
pl	-9.33684
▁menor	-9.33816
stro	-9.33817
tre	-9.33829
▁parece	-9.33858
q	-9.33869
▁cantor	-9.33934
▁oito	-9.33975
▁homenagem	-9.33979
%	-9.34204
▁romano	-9.34316
▁()	-9.34363
▁david	-9.3441
▁medicina	-9.34426
▁deixou	-9.34434
bri	-9.345
▁estudou	-9.34667
▁y	-9.34706
tório	-9.34733
▁imp	-9.34801
▁catarina	-9.34943
▁agora	-9.34964
▁1990	-9.34984
ês	-9.3507
▁carro	-9.35095
▁existem	-9.35166
▁ber	-9.3533
▁terminou	-9.3546
▁teatro	-9.3546
▁usando	-9.35649
▁possa	-9.36027
▁res	-9.36059
▁anunciou	-9.36201
ncia	-9.36238
▁eu	-9.36359
pri	-9.36371
▁formado	-9.36408
▁corrida	-9.36505
▁bispo	-9.36507
bel	-9.36623
▁deve	-9.36885
▁oliveira	-9.37031
▁itália	-9.37032
▁1964	-9.37046
▁cujo	-9.37058
▁entrevista	-9.37068
tação	-9.37141
▁banco	-9.37168
▁deles	-9.37189
▁crítica	-9.37214
▁(18	-9.37221
▁anterior	-9.37313
lé	-9.37364
and	-9.37437
▁britânico	-9.3756
▁comunista	-9.37561
▁fernando	-9.37624
▁perdeu	-9.37628
hy	-9.37738
can	-9.37779
▁americano	-9.37807
▁piloto	-9.3785
qua	-9.37882
▁massa	-9.37969
▁estudantes	-9.37982
▁argentina	-9.38091
▁superliga	-9.38095
▁fala	-9.38107
inho	-9.38109
codi	-9.38565
▁termo	-9.38616
▁romance	-9.38655
▁2020	-9.38673
60	-9.38765
▁longa	-9.38912
▁qui	-9.38933
▁revela	-9.39049
iu	-9.39092
▁médio	-9.39164
▁fazendo	-9.39165
▁internet	-9.39175
rica	-9.39177
▁1910	-9.39188
▁parque	-9.39254
18	-9.39355
▁tornando	-9.3943
ban	-9.39558
▁unido	-9.39659
▁mercado	-9.39706
▁consta	-9.39728
▁wa	-9.39758
▁[	-9.39761
▁pais	-9.39794
▁2009	-9.39971
▁artista	-9.40002
▁alcanç	-9.40078
▁2016,	-9.40128
▁tribunal	-9.40248
▁1995	-9.40267
▁canções	-9.40347
▁ad	-9.40392
▁nem	-9.4045
ez	-9.40466
▁conde	-9.40512
▁irmã	-9.4064
16	-9.40779
▁netuno	-9.40794
ō	-9.40864
▁trabalhar	-9.40925
▁grego	-9.4095
▁40	-9.4101
▁iii	-9.41047
▁je	-9.41225
▁geográfica	-9.41347
▁cur	-9.41461
▁cuba	-9.41464
▁casamento	-9.41522
▁futebolista	-9.41752
gan	-9.41772
▁estadunidense	-9.41896
▁michael	-9.41896
▁mac	-9.41897
▁pertencente	-9.41972
▁tudo	-9.4199
▁artistas	-9.42182
▁seguintes	-9.42313
▁problemas	-9.42318
▁tinham	-9.42366
single	-9.4238
▁1997	-9.42472
▁receber	-9.42524
ting	-9.42535
▁visto	-9.42543
▁far	-9.42616
▁leste	-9.42664
bar	-9.42702
▁ana	-9.42782
tis	-9.42874
▁natal	-9.43034
▁sabe	-9.43053
vis	-9.43071
▁pré	-9.43077
97	-9.43239
▁tenha	-9.43254
▁comum	-9.43348
iva	-9.43399
▁we	-9.4344
▁comando	-9.43484
▁lin	-9.43569
▁construído	-9.43572
▁assinou	-9.43572
▁russo	-9.43573
▁nenhum	-9.43576
▁cuja	-9.43616
▁anunciado	-9.43717
gia	-9.43869
nho	-9.44018
álbum	-9.44072
▁dessa	-9.44125
▁bahia	-9.44138
▁operações	-9.44176
▁acaba	-9.44192
▁min	-9.44362
tivos	-9.44403
ron	-9.44473
▁elsa	-9.44729
▁duque	-9.4483
ç	-9.44905
▁flor	-9.44925
ras	-9.44962
nde	-9.45068
▁bon	-9.45084
▁sim	-9.45084
▁casou	-9.45136
▁troca	-9.45206
▁congresso	-9.45277
▁dr	-9.45325
▁peso	-9.45348
▁humanos	-9.45446
▁considera	-9.45517
▁produto	-9.45645
▁apresenta	-9.45823
▁academia	-9.45852
%)	-9.45893
by	-9.459
ssem	-9.46005
zu	-9.46083
11	-9.4609
▁nascido	-9.46215
▁nomes	-9.46294
▁tentativa	-9.46488
▁cidades	-9.46506
amente	-9.4651
burg	-9.46585
▁pu	-9.46699
▁escritor	-9.46714
▁estes	-9.46803
ud	-9.46916
tsu	-9.46937
▁uni	-9.46957
▁bor	-9.46967
▁católica	-9.47011
▁sociais	-9.47015
15	-9.47019
▁tais	-9.47129
▁você	-9.47149
▁ur	-9.47157
▁publicado	-9.47216
▁serem	-9.47241
▁men	-9.47348
93	-9.4738
▁pen	-9.47509
ty	-9.47511
▁responsável	-9.47596
-1	-9.47611
▁maneira	-9.47678
lle	-9.47679
95	-9.47723
ian	-9.47831
▁rec	-9.47832
?	-9.47846
▁paul	-9.47875
ble	-9.4793
ador	-9.4794
tina	-9.48131
▁colégio	-9.48184
▁atrás	-9.48184
▁1993	-9.48204
▁administração	-9.48209
▁fifa	-9.48232
▁van	-9.48275
▁fundada	-9.48329
▁aparece	-9.4835
▁situada	-9.48387
vel	-9.48396
▁bel	-9.4842
dio	-9.48695
▁página	-9.48776
nto	-9.48901
▁finalmente	-9.49021
▁permaneceu	-9.49024
▁isto	-9.49044
gui	-9.49153
▁inc	-9.49198
ib	-9.49225
▁deus	-9.49302
.000	-9.49324
gh	-9.49362
▁austrália	-9.49371
▁carvalho	-9.49371
▁my	-9.49406
ía	-9.49443
▁round	-9.49584
▁equipes	-9.4978
▁novas	-9.49815
tno	-9.49822
▁composta	-9.49827
tan	-9.49839
▁líder	-9.49842
▁babilónia	-9.4997
▁secretário	-9.4997
▁futuro	-9.4997
▁tropas	-9.49976
▁1912	-9.4999
▁tro	-9.49995
▁indicação	-9.50072
vol	-9.50112
▁robert	-9.50212
op	-9.50317
12	-9.50336
▁estar	-9.50349
°	-9.50572
▁pequena	-9.50601
▁pra	-9.50677
▁prata	-9.50681
uni	-9.50819
pt	-9.50835
▁restos	-9.5098
▁luc	-9.51063
▁digital	-9.51178
▁enfrentou	-9.51178
▁inglaterra	-9.51178
▁velocidade	-9.51178
▁abertura	-9.51179
▁caça	-9.51358
▁sur	-9.51484
bert	-9.51492
▁oficialmente	-9.51535
▁refere	-9.51557
ura	-9.517
▁encerra	-9.51755
lon	-9.51774
▁ufc	-9.51788
▁jovens	-9.51789
▁precisa	-9.51789
▁tiveram	-9.51789
▁frequent	-9.51791
▁provavelmente	-9.51791
▁daniel	-9.51861
▁2016	-9.51893
▁nba	-9.51933
ís	-9.51987
▁aconteceu	-9.51996
▁tortura	-9.52289
65	-9.52416
▁informação	-9.52489
▁criar	-9.52581
rico	-9.52704
▁gen	-9.52732
▁som	-9.52762
▁empresas	-9.53001
▁mosteiro	-9.53019
▁1974	-9.53036
▁ki	-9.53093
▁ocupa	-9.53128
▁originalmente	-9.53196
▁tele	-9.53316
nico	-9.53371
▁últimos	-9.53419
▁roberto	-9.53423
▁2015.	-9.53446
);	-9.53465
▁presença	-9.5364
▁brown	-9.53641
one	-9.53651
ivo	-9.53739
▁eventos	-9.53852
▁participar	-9.53925
port	-9.53964
▁áreas	-9.54074
hu	-9.54132
▁york	-9.54171
99	-9.54188
▁utilizado	-9.54242
▁próxima	-9.54265
▁capacidade	-9.54268
▁audiência	-9.54271
ep	-9.54287
▁1911	-9.54287
▁policiais	-9.5429
cida	-9.54383
▁esquerda	-9.54391
ín	-9.54395
up	-9.54566
▁el	-9.54703
▁us	-9.54722
▁espírito	-9.54894
▁oficiais	-9.54894
▁sequência	-9.54894
▁james	-9.54915
pel	-9.54978
▁mata	-9.55026
▁caminho	-9.55062
▁porta	-9.55362
▁termos	-9.55404
tó	-9.55492
▁visita	-9.55512
tz	-9.55524
▁afirmou	-9.55527
▁partidas	-9.55655
▁serviços	-9.55717
▁americana	-9.55779
▁poli	-9.55817
▁interna	-9.55876
▁composto	-9.56166
▁denominado	-9.56175
▁1985	-9.56183
▁imagem	-9.56188
nder	-9.5622
▁altura	-9.5624
▁jornalista	-9.56295
▁levado	-9.56391
▁vista	-9.56403
▁bro	-9.56452
nu	-9.56475
ele	-9.56638
▁documentos	-9.56642
▁ocorre	-9.56685
▁militantes	-9.56708
▁indica	-9.56786
▁diocese	-9.56805
▁experiência	-9.56805
▁avanço	-9.56805
▁vo	-9.56817
▁1980	-9.56831
ato	-9.56903
gua	-9.56916
▁destaque	-9.56925
▁0	-9.57029
bal	-9.57065
▁redes	-9.57126
rd	-9.57127
ker	-9.57326
▁gols	-9.57436
75	-9.57444
▁análise	-9.5745
▁recepção	-9.5745
▁parceria	-9.5745
14	-9.57501
▁estádio	-9.57523
▁za	-9.57536
bro	-9.57626
pul	-9.57684
▁paz	-9.57743
▁comercial	-9.57756
ish	-9.57765
▁músicas	-9.57768
▁entrada	-9.5785
▁60	-9.57893
fra	-9.57926
bl	-9.57965
▁esses	-9.58057
▁ku	-9.5808
▁legislatura	-9.58099
▁regional	-9.58099
▁destaca	-9.581
▁prática	-9.58103
▁francesa	-9.58112
▁eleitoral	-9.58144
▁função	-9.58179
45	-9.58263
▁medi	-9.58612
ok	-9.58675
▁sinopse	-9.58753
▁departamento	-9.58753
▁imagens	-9.58753
▁turnê	-9.58753
▁1960	-9.58778
▁antonio	-9.58807
form	-9.58808
66	-9.59007
▁armas	-9.59042
▁astrônomo	-9.59048
▁mack	-9.59057
bil	-9.59134
▁corte	-9.59144
29	-9.59194
▁marc	-9.59218
▁kepler	-9.59411
▁rebotes	-9.59411
▁bastante	-9.59411
▁miguel	-9.59411
▁habitantes	-9.59422
▁escala	-9.59423
ível	-9.59474
▁soldados	-9.59475
▁world	-9.59575
pan	-9.59584
cl	-9.59587
▁records	-9.59624
67	-9.59657
▁bol	-9.60018
▁favor	-9.6005
▁italiano	-9.60073
for	-9.60074
▁interesse	-9.60074
▁concurso	-9.60076
▁1975	-9.60094
▁eleitos	-9.60106
▁considerada	-9.60119
my	-9.60155
▁utiliza	-9.60179
▁fre	-9.60329
her	-9.6033
▁ministro	-9.60337
ini	-9.60365
bat	-9.60459
ara	-9.60476
▁vir	-9.60477
▁usar	-9.6052
bor	-9.60668
▁continuou	-9.6074
▁oferece	-9.6074
▁titular	-9.6074
ei	-9.60748
▁(14	-9.60775
70	-9.60801
96	-9.60837
▁localizada	-9.60946
▁toca	-9.61006
87	-9.61063
94	-9.61155
▁2009,	-9.61226
▁pesquisa	-9.61263
▁importantes	-9.61273
▁cubewano	-9.61411
▁indústria	-9.61411
▁escolha	-9.61411
▁entretanto	-9.61411
▁observatório	-9.61416
▁oriental	-9.6143
▁reserva	-9.6153
04	-9.61534
americana	-9.61655
▁sha	-9.61689
▁junta	-9.61738
▁passado	-9.61766
enta	-9.61867
▁pri	-9.61889
ard	-9.62119
▁mabel	-9.62143
25	-9.62154
▁situação	-9.6216
▁classifica	-9.62283
▁encontrar	-9.62345
▁2013.	-9.62426
▁prefeito	-9.62428
lis	-9.62491
49	-9.62519
▁reforma	-9.62609
▁nove	-9.62667
35	-9.62726
ent	-9.62766
▁denominação	-9.62768
vin	-9.62895
▁comandante	-9.62912
▁var	-9.63035
art	-9.63044
sion	-9.63172
ero	-9.63262
▁ps	-9.63322
▁científica	-9.63452
▁filosofia	-9.63452
▁influência	-9.63452
▁ressonância	-9.63452
▁mendes	-9.6348
▁vaga	-9.63486
▁rainha	-9.63515
ón	-9.63696
▁especialmente	-9.63718
72	-9.63821
ré	-9.63983
iza	-9.63997
▁dá	-9.64023
▁1996	-9.64136
▁áfrica	-9.64141
▁cl	-9.6428
89	-9.64353
85	-9.64435
iz	-9.64436
▁jogou	-9.64551
▁amigo	-9.64637
▁mer	-9.64733
ris	-9.6477
64	-9.64797
▁conhecimento	-9.64836
▁desempenho	-9.64836
▁feminino	-9.64836
▁fornece	-9.64837
▁quinta	-9.64855
▁criou	-9.64926
▁valor	-9.65075
▁á	-9.65102
▁film	-9.65103
▁atividade	-9.65286
áveis	-9.65349
▁che	-9.65367
68	-9.65392
▁realiza	-9.65405
▁pratica	-9.65408
▁simples	-9.65415
40	-9.65442
ens	-9.65487
▁ameaça	-9.65535
▁conform	-9.6558
▁recebe	-9.65599
ela	-9.65666
▁gera	-9.65683
▁iv	-9.6584
ani	-9.65846
ville	-9.65986
▁fontes	-9.66029
▁gal	-9.6608
▁diferente	-9.66081
▁pla	-9.66093
▁seguir	-9.66195
▁quantidade	-9.66239
▁aérea	-9.66239
▁pereira	-9.66282
▁george	-9.66398
▁estudo	-9.66461
▁essas	-9.66562
▁projetos	-9.66578
▁acredita	-9.66578
ser	-9.66704
▁lugares	-9.66753
▁pé	-9.6676
▁aeronave	-9.66797
▁explica	-9.66949
▁luís	-9.66977
▁comunicação	-9.66987
nne	-9.66996
ers	-9.67046
▁mag	-9.67062
ist	-9.67315
63	-9.67611
▁reconhecimento	-9.67663
▁incluem	-9.67663
nc	-9.67671
▁lago	-9.67718
▁roma	-9.67796
▁ciência	-9.67839
▁anna	-9.67842
▁rodada	-9.6785
▁ban	-9.67924
▁iria	-9.68003
▁trabalhos	-9.68142
76	-9.68201
▁mc	-9.68235
▁bom	-9.68294
61	-9.68295
05	-9.68362
ola	-9.68373
▁novela	-9.68374
’	-9.68382
▁advogado	-9.68382
▁complexo	-9.68382
▁engenheiro	-9.68382
▁emissora	-9.68383
56	-9.68424
▁metade	-9.68476
nsa	-9.68504
ung	-9.68506
ata	-9.68542
▁un	-9.68636
▁cultural	-9.68647
como	-9.6876
▁los	-9.68775
gg	-9.68847
▁críticas	-9.68856
▁encontrado	-9.68909
▁informa	-9.68947
lli	-9.68964
▁rússia	-9.69107
▁contudo	-9.69107
▁gestão	-9.69108
▁livros	-9.69115
▁1989	-9.69128
▁publicou	-9.69131
ling	-9.69277
▁usada	-9.69279
▁verão	-9.69289
▁plano	-9.69319
riam	-9.69321
▁alemã	-9.6933
▁contou	-9.69389
▁fil	-9.69446
ular	-9.69471
▁euro	-9.69481
sal	-9.69491
uro	-9.69501
▁ch	-9.69584
▁ger	-9.6961
▁cap	-9.69739
▁decidiu	-9.69837
▁treinamento	-9.69849
▁espécies	-9.69851
▁1914	-9.6986
▁príncipe	-9.69913
▁faixas	-9.69922
62	-9.69925
▁falta	-9.69926
▁contato	-9.69931
▁luz	-9.69941
▁belo	-9.69961
▁qualidade	-9.70005
▁retornou	-9.70068
▁representa	-9.70076
don	-9.70135
gos	-9.70289
▁cre	-9.70361
▁miss	-9.7049
ari	-9.70498
▁técnica	-9.7052
▁templo	-9.70523
▁algo	-9.70571
▁sennett	-9.70572
▁laudo	-9.70587
▁desenho	-9.70588
▁fr	-9.70607
▁salvador	-9.70622
▁china	-9.70691
▁amigos	-9.70796
24	-9.7082
▁presos	-9.70943
▁ze	-9.71015
79	-9.71094
▁planta	-9.71145
▁títulos	-9.71259
▁quarta	-9.7129
▁eduardo	-9.71313
▁ataque	-9.71313
▁iorque	-9.71313
▁portanto	-9.71322
▁animais	-9.7133
▁1945	-9.71336
02	-9.7136
▁angeles	-9.71369
tr	-9.71416
tel	-9.71461
34	-9.71506
izar	-9.71571
kh	-9.71705
val	-9.71711
▁chegar	-9.71714
▁primeiras	-9.71743
ea	-9.71936
▁legislativa	-9.72059
▁panzer	-9.72073
▁resultados	-9.72203
▁algum	-9.72213
▁episódios	-9.7241
90	-9.72455
gas	-9.72483
▁órgãos	-9.72492
▁organizado	-9.72526
▁awards	-9.72595
28	-9.72726
▁ocidental	-9.72811
▁bronze	-9.72811
▁ferreira	-9.72811
▁vesti	-9.72828
▁1986	-9.72832
▁praça	-9.72835
▁passagem	-9.72841
dge	-9.72878
pen	-9.72903
▁col	-9.72905
▁ciências	-9.72946
▁londres	-9.72953
▁ferro	-9.72968
74	-9.73023
78	-9.73054
▁diante	-9.73055
86	-9.73108
▁missão	-9.73118
gor	-9.7318
met	-9.73211
sc	-9.7344
▁chile	-9.73474
ther	-9.73486
▁transporte	-9.73488
▁dis	-9.73494
lá	-9.73497
81	-9.73501
ant	-9.73507
▁eua	-9.73533
▁dinheiro	-9.73569
▁rapidamente	-9.73569
▁veio	-9.73662
▁marido	-9.73683
▁manter	-9.73731
▁1988	-9.73769
cher	-9.73835
▁tiro	-9.73935
▁formato	-9.73937
▁palavras	-9.74021
pon	-9.74036
▁chega	-9.74102
▁usa	-9.74112
▁funciona	-9.74136
▁guarda	-9.74191
▁passar	-9.74207
▁apeadeiro	-9.74332
▁1992	-9.74335
▁quinto	-9.74345
▁daquele	-9.74346
▁capitão	-9.74352
▁1950	-9.74367
ética	-9.74394
▁mike	-9.74413
▁jogar	-9.74508
▁von	-9.7489
▁termina	-9.74907
▁escu	-9.74993
▁seguido	-9.7507
▁relatório	-9.75101
▁ganha	-9.75102
01	-9.75109
▁espanhol	-9.75172
▁domínio	-9.75237
tter	-9.75242
▁tor	-9.75249
▁extra	-9.75283
▁anteriores	-9.75286
▁categorias	-9.75386
ntre	-9.75394
usa	-9.75396
▁torno	-9.75632
ps	-9.75661
84	-9.75681
▁tour	-9.75718
▁top	-9.75794
▁campos	-9.75917
71	-9.75931
▁califórnia	-9.75938
ab	-9.75939
23	-9.76072
59	-9.76156
campeonato	-9.76239
▁sam	-9.76342
sch	-9.76401
net	-9.7655
39	-9.76579
▁you	-9.76605
58	-9.76614
▁biblioteca	-9.76658
▁lópez	-9.76658
▁demonstra	-9.76659
▁distribuído	-9.76659
od	-9.76669
▁39	-9.76673
ático	-9.76691
▁1991	-9.76717
▁semelhante	-9.76799
▁recife	-9.76807
▁gene	-9.76825
▁+	-9.76861
▁vive	-9.76942
▁permanece	-9.76985
ney	-9.77045
ap	-9.77102
▁game	-9.77225
▁esco	-9.77363
▁estréia	-9.77445
▁completo	-9.77445
▁formou	-9.77449
▁resposta	-9.77456
▁pedido	-9.77462
▁familiares	-9.77501
▁coleção	-9.77515
fre	-9.77605
▁estudante	-9.77648
31	-9.77753
▁regular	-9.77805
▁encontro	-9.78024
cial	-9.78082
▁ficar	-9.78166
▁chi	-9.78231
▁futsal	-9.78239
▁charles	-9.7825
▁roteiro	-9.78256
▁horizonte	-9.78259
▁bur	-9.78343
▁classificação	-9.7836
ró	-9.78362
▁ideia	-9.78437
▁documento	-9.78443
▁fogo	-9.78444
▁atuação	-9.78452
▁certa	-9.78473
▁autoridade	-9.78506
▁cópias	-9.78541
ntém	-9.78575
▁bri	-9.78749
▁participa	-9.78797
▁objetos	-9.7888
mba	-9.78927
▁britânica	-9.79039
▁permite	-9.79039
.5	-9.79055
▁musicais	-9.79067
bs	-9.79163
▁mau	-9.79198
91	-9.79202
▁35	-9.79208
▁depoimento	-9.79255
cy	-9.7927
▁voz	-9.7932
▁ke	-9.79358
03	-9.79406
▁vol	-9.79423
▁traz	-9.7944
ico	-9.79622
▁ac	-9.79628
▁entra	-9.79736
iam	-9.79739
zer	-9.79753
▁espanhola	-9.79771
▁conceito	-9.79845
▁versões	-9.79847
▁1947	-9.79861
▁globo	-9.79861
27	-9.799
▁plataforma	-9.7992
▁resulta	-9.79923
san	-9.79966
▁elementos	-9.80078
▁ponte	-9.801
▁cons	-9.80119
ux	-9.80154
lado	-9.80199
▁sala	-9.80203
▁z	-9.80242
▁2012.	-9.8027
▁crianças	-9.80289
die	-9.80295
55	-9.80319
▁200	-9.80364
har	-9.80527
▁ambiente	-9.80658
▁brasília	-9.80658
▁promovido	-9.80658
▁confronto	-9.80658
▁alexandre	-9.80658
▁dizendo	-9.80659
▁produtor	-9.80671
▁secretaria	-9.80674
▁henrique	-9.8068
▁pós	-9.80703
▁louis	-9.80711
▁reis	-9.80807
▁moderna	-9.80822
ima	-9.80851
▁torturado	-9.80926
▁europeu	-9.80932
▁torre	-9.81054
000	-9.81071
▁solo	-9.81101
▁senhor	-9.81115
▁trabalha	-9.81222
lly	-9.81308
17	-9.81375
▁campeões	-9.81478
▁richard	-9.81478
▁madeira	-9.81484
▁realizou	-9.81495
▁finais	-9.81496
▁1982	-9.81497
▁1987	-9.81503
▁lima	-9.81532
ná	-9.81591
nica	-9.81626
▁marcado	-9.81653
▁começaram	-9.81723
▁dops	-9.81792
▁peça	-9.81858
▁editora	-9.81873
▁fonte	-9.81903
▁demais	-9.81958
▁fun	-9.82053
ire	-9.82055
▁atuar	-9.82068
▁particular	-9.82241
▁equipa	-9.82281
vid	-9.82288
▁apresentou	-9.82304
▁federais	-9.82304
▁pedra	-9.82307
▁city	-9.82368
▁ambas	-9.8238
▁marinha	-9.82388
▁festa	-9.82391
▁abaixo	-9.82401
▁cr	-9.82422
ak	-9.82436
▁retorna	-9.82515
▁fc	-9.82534
▁palavra	-9.82644
48	-9.82649
▁bal	-9.82655
izou	-9.82659
").	-9.82732
▁começo	-9.8281
▁monta	-9.82851
▁ven	-9.82898
▁verde	-9.82905
▁deixar	-9.83108
▁assassinato	-9.83138
▁famoso	-9.83139
▁fronteira	-9.8315
ag	-9.83187
▁repressão	-9.83187
▁80	-9.83215
46	-9.83357
▁física	-9.83499
ns	-9.83558
42	-9.83741
ier	-9.83792
▁segue	-9.8381
▁shi	-9.83826
▁treinador	-9.83866
▁cabo	-9.83903
tte	-9.83967
▁material	-9.83978
▁desenvolvido	-9.83978
▁prémio	-9.83983
▁pintura	-9.83988
era	-9.84012
▁sé	-9.84057
▁rocha	-9.8408
▁mestre	-9.84254
2.	-9.84306
▁foca	-9.84356
▁estas	-9.84426
ários	-9.84439
▁completa	-9.8449
▁casal	-9.84501
van	-9.8462
ído	-9.84735
▁posto	-9.84822
▁vermelho	-9.84825
▁primário	-9.84825
▁índia	-9.84826
▁padre	-9.84828
▁aproximadamente	-9.84883
▁produtos	-9.84993
▁«	-9.85017
▁tradicional	-9.85052
▁art	-9.85068
icamente	-9.85079
▁temas	-9.85105
ática	-9.85226
▁composição	-9.85243
▁descreve	-9.85346
▁orbita	-9.85437
oc	-9.85502
▁cria	-9.85568
rj	-9.85575
posta	-9.85637
▁biograph	-9.8568
▁construída	-9.8568
▁regiões	-9.8568
▁acidente	-9.85681
▁frank	-9.85688
antes	-9.85694
ício	-9.85751
▁chama	-9.85766
▁policial	-9.85862
▁aliança	-9.85864
▁candidatos	-9.85882
▁governa	-9.86059
▁elas	-9.86124
▁it	-9.86161
▁44	-9.86187
▁manuel	-9.86189
col	-9.86239
mir	-9.86333
▁existe	-9.86368
rão	-9.8638
▁gri	-9.86396
gio	-9.86428
▁transforma	-9.8644
▁federação	-9.86542
▁1979	-9.86566
▁respectivamente	-9.86569
▁nomeadamente	-9.86582
eiros	-9.86597
ilha	-9.86625
▁serra	-9.86631
▁alemães	-9.86693
▁satélite	-9.86822
83	-9.86848
▁cd	-9.8685
ay	-9.86911
▁pat	-9.8695
▁realizadas	-9.86982
▁lar	-9.86989
▁tentar	-9.87029
▁mudança	-9.87033
tha	-9.87057
nti	-9.87111
▁cer	-9.87191
▁(20	-9.87234
▁opera	-9.87321
▁descrição	-9.87412
▁sérgio	-9.87412
▁tabela	-9.87412
▁relações	-9.87413
▁proposta	-9.87451
▁vem	-9.87569
▁formada	-9.87599
▁confi	-9.87603
▁fac	-9.87625
▁partes	-9.87685
nuncia	-9.87706
line	-9.87802
▁mora	-9.87819
não	-9.87836
06	-9.87846
zar	-9.87859
▁encontram	-9.87875
▁pensa	-9.88049
▁observado	-9.8811
▁fundador	-9.88135
▁capaz	-9.88159
▁meu	-9.88171
▁marco	-9.88176
ves	-9.88283
▁encerrou	-9.88289
▁independência	-9.88289
▁descrita	-9.88289
▁leve	-9.88293
▁produzida	-9.883
▁gomes	-9.88314
▁vende	-9.88339
▁reinado	-9.88339
▁mma	-9.88408
43	-9.88486
▁hel	-9.8853
▁reais	-9.88594
▁encontrados	-9.88644
▁carne	-9.88674
33	-9.88751
vida	-9.88759
win	-9.88829
▁doença	-9.88832
▁texto	-9.88838
▁cópia	-9.88838
governador	-9.88887
có	-9.89007
▁prova	-9.89087
▁espera	-9.89115
▁revolução	-9.89174
▁consiste	-9.89175
▁1962	-9.89199
▁dez	-9.89207
▁entrar	-9.89227
▁gil	-9.89294
var	-9.89366
▁2006,	-9.89407
tch	-9.89446
▁dança	-9.89474
▁ajudar	-9.89617
pir	-9.89727
▁separa	-9.89742
▁paraná	-9.8983
▁fazia	-9.89843
▁campeã	-9.89907
▁letras	-9.89978
▁disputar	-9.90004
▁inclusive	-9.90067
▁princípio	-9.90067
▁provável	-9.90067
▁hornets	-9.90067
▁uefa	-9.90075
▁park	-9.90096
ônica	-9.90131
▁lesão	-9.90195
▁club	-9.90252
▁wi	-9.90255
lus	-9.90281
82	-9.9029
▁cara	-9.90347
▁metal	-9.904
▁casado	-9.90401
lina	-9.90494
bio	-9.90509
let	-9.9052
missão	-9.90666
cle	-9.90706
▁programas	-9.90826
▁clássico	-9.90968
▁memória	-9.90968
▁enterrado	-9.90968
▁harry	-9.90989
▁azul	-9.91026
▁ganhar	-9.91105
ye	-9.91113
▁fundo	-9.91205
77	-9.91265
▁unidades	-9.91306
▁martin	-9.91318
cional	-9.91472
▁ed	-9.91513
–1	-9.91592
92	-9.91708
▁xi	-9.9177
mel	-9.91782
▁fizeram	-9.91877
▁carioca	-9.91877
▁natureza	-9.91877
▁aéreo	-9.91877
▁teoria	-9.91878
▁avenida	-9.91878
▁gravação	-9.91918
▁prêmios	-9.91951
▁crime	-9.91982
09	-9.92019
▁augusto	-9.92026
▁suíça	-9.92027
▁produtores	-9.92074
▁alberto	-9.92082
mes	-9.92211
▁anteriormente	-9.92245
▁toma	-9.92364
▁figura	-9.9244
▁pop	-9.92461
36	-9.92553
▁mortes	-9.92624
44	-9.92721
▁kg	-9.92789
▁escolhido	-9.92794
▁artístico	-9.92798
▁naquele	-9.92802
▁multi	-9.92804
▁agência	-9.92805
08	-9.92823
▁estrada	-9.92831
ure	-9.92833
ey	-9.92869
▁vencedor	-9.9287
▁trono	-9.92929
▁exibida	-9.92997
▁sentido	-9.93027
▁hor	-9.93033
▁grand	-9.93072
gon	-9.9329
tória	-9.93295
▁situado	-9.93295
rina	-9.93301
rei	-9.93326
▁dele	-9.93368
pas	-9.93372
▁bomba	-9.93373
dura	-9.93473
▁edifício	-9.93505
tores	-9.93619
▁nações	-9.93712
▁conflito	-9.9372
▁importância	-9.9372
▁acima	-9.9375
57	-9.93773
ath	-9.93885
▁bala	-9.93888
▁cho	-9.93943
-20	-9.93958
▁oposição	-9.94003
▁textos	-9.94074
▁assistências	-9.94098
▁dar	-9.94246
▁ste	-9.94266
▁doi	-9.94334
sky	-9.94402
▁fl	-9.94471
▁capa	-9.94498
▁pertence	-9.94527
13	-9.94579
▁voleibol	-9.94641
▁conteúdo	-9.94655
▁guerrilha	-9.94655
▁nocaute	-9.94655
▁tiroteio	-9.94655
▁sonora	-9.94655
▁enredo	-9.94656
▁exerce	-9.9466
▁1943	-9.94676
▁clara	-9.94681
▁resistência	-9.94685
73	-9.94694
▁cunha	-9.94695
▁ya	-9.94731
▁critica	-9.9474
▁normand	-9.94758
▁convidado	-9.94811
▁papa	-9.94822
▁acompanha	-9.94827
idae	-9.94836
▁juan	-9.94872
▁pin	-9.9495
▁pal	-9.95048
▁utilizada	-9.95062
▁derrotado	-9.95145
▁mel	-9.95175
▁apareceu	-9.95186
▁lee	-9.95193
dade	-9.95263
▁meta	-9.95305
▁canto	-9.95419
▁45	-9.95457
▁situa	-9.95549
íveis	-9.95575
▁bizantino	-9.95598
▁contrário	-9.95598
▁recebido	-9.95598
▁alimenta	-9.95607
▁metralhadora	-9.95616
▁1983	-9.95621
▁1976	-9.95625
▁integra	-9.95626
▁publicação	-9.95699
▁pinto	-9.95705
mann	-9.95705
▁destino	-9.95724
▁visão	-9.95729
▁tipos	-9.95774
▁sofreu	-9.95817
▁peter	-9.95828
▁vão	-9.95914
▁castelo	-9.95919
▁praia	-9.95988
07	-9.95998
▁armadas	-9.96004
38	-9.96033
▁deixa	-9.96064
ius	-9.96253
▁inicia	-9.96275
▁muda	-9.96294
+	-9.96303
presidente	-9.96306
53	-9.96363
▁brasileiros	-9.96431
ray	-9.9651
▁tiros	-9.96525
▁canadá	-9.9655
▁italiana	-9.9655
▁ocorrido	-9.9655
▁camisa	-9.9655
▁nominais	-9.96553
▁jorge	-9.96554
▁braga	-9.96555
▁andrea	-9.96555
▁1944	-9.96572
▁1978	-9.96576
▁constituição	-9.96585
▁inicial	-9.96596
▁1930	-9.96605
▁estabeleceu	-9.9672
▁línguas	-9.96835
▁disputada	-9.96853
sol	-9.96872
campeã	-9.96893
▁podemos	-9.97045
star	-9.9705
▁open	-9.97169
▁conhecidos	-9.9718
▁encontrada	-9.97194
▁sho	-9.97332
▁red	-9.9741
▁alexander	-9.97512
▁disponível	-9.97512
▁fokker	-9.97512
▁japonesa	-9.97512
▁prefeitura	-9.97512
▁suicídio	-9.97512
▁cenário	-9.97512
▁henry	-9.97512
▁nepal	-9.97524
▁1984	-9.97538
▁1967	-9.97542
▁1915	-9.97546
▁tel	-9.97553
▁apresentada	-9.9757
▁mortais	-9.97571
▁yu	-9.976
▁substituído	-9.97602
▁viagem	-9.9764
▁poucas	-9.97726
lico	-9.9792
cionais	-9.97924
▁baseada	-9.98122
▁70	-9.98128
▁realizar	-9.98154
▁apresentado	-9.98178
▁vinte	-9.98204
ah	-9.98269
▁desses	-9.98311
▁acontece	-9.98315
54	-9.98323
▁poucos	-9.98374
▁extrema	-9.98483
▁padrão	-9.98483
▁profissionais	-9.98483
▁universal	-9.98483
▁condições	-9.98483
▁ultra	-9.98485
▁transmissão	-9.98496
▁souza	-9.98498
▁funções	-9.98551
▁etc	-9.98594
▁custo	-9.986
▁localidade	-9.98657
▁apresentação	-9.98657
nar	-9.98698
nco	-9.98713
▁honra	-9.98753
▁aponta	-9.98788
▁mato	-9.98811
▁fotos	-9.98901
ture	-9.98998
▁42	-9.99044
▁ten	-9.99103
porta	-9.99153
▁voltar	-9.99154
▁vas	-9.99229
▁semanas	-9.99361
▁experiment	-9.99386
▁nenhuma	-9.99457
billboard	-9.99463
▁franquia	-9.99463
▁inferior	-9.99463
▁espacial	-9.99463
▁árabe	-9.99463
▁binário	-9.99464
▁revolucionária	-9.99465
▁executivo	-9.99468
▁maranhão	-9.99472
2007	-9.99522
▁selecionado	-9.99553
▁apura	-9.99584
▁lan	-9.99617
ern	-9.99618
▁bre	-9.99679
▁33	-9.99691
52	-9.99795
3.	-9.99943
▁sch	-10
▁43	-10.0005
cidade	-10.001
brig	-10.0016
▁pr	-10.0027
tom	-10.0029
▁referência	-10.0043
▁competições	-10.0045
▁dinastia	-10.0045
▁existência	-10.0045
▁necessário	-10.0045
▁telescópio	-10.0045
▁operário	-10.0046
▁atenção	-10.0046
▁energia	-10.0048
▁viaja	-10.0053
▁disputado	-10.0057
▁arena	-10.006
▁posse	-10.0067
▁cai	-10.0075
▁políticas	-10.0086
▁conservada	-10.009
und	-10.0091
▁matt	-10.0111
▁hip	-10.0121
):	-10.0134
ning	-10.0144
▁césar	-10.0145
▁reconhece	-10.0145
▁superfície	-10.0145
▁variedade	-10.0145
▁school	-10.0145
▁trilha	-10.0145
▁comitê	-10.0146
▁declarou	-10.0146
▁sediada	-10.0146
▁internacionais	-10.0146
▁anime	-10.0147
▁wright	-10.0147
▁victor	-10.0149
▁sin	-10.015
▁tratamento	-10.0154
▁jean	-10.0155
▁intitulado	-10.0164
▁gelo	-10.0167
▁menores	-10.0171
▁registrou	-10.0175
▁setor	-10.0177
26	-10.0182
▁motores	-10.0182
▁japonês	-10.0184
cc	-10.0184
▁tan	-10.0188
▁ph	-10.0194
▁astrônomos	-10.0201
▁up	-10.0211
▁linhas	-10.0216
▁estre	-10.0216
▁aumento	-10.0219
▁preto	-10.0223
▁grau	-10.0226
▁motivo	-10.023
▁explora	-10.0239
2,	-10.0241
▁literatura	-10.0246
▁tradição	-10.0246
▁ricardo	-10.0246
▁imprensa	-10.0247
▁1966	-10.025
▁poeta	-10.0252
▁gravadora	-10.0261
▁nick	-10.0261
▁sair	-10.0262
cro	-10.0272
▁saída	-10.0274
lig	-10.0277
▁senado	-10.0279
▁2011.	-10.0284
▁certo	-10.0288
▁corpos	-10.0291
bb	-10.0292
▁cri	-10.0292
▁leão	-10.0299
▁consegui	-10.0301
dar	-10.0305
▁peças	-10.031
▁remo	-10.0327
if	-10.0331
-16	-10.0331
▁rap	-10.0341
ância	-10.0344
dido	-10.0347
▁possuem	-10.0348
▁derrotou	-10.0348
▁frequentemente	-10.0348
▁manteve	-10.0348
▁revolta	-10.0348
▁asteroide	-10.0349
ndida	-10.035
▁38	-10.0353
▁nascimento	-10.0354
uta	-10.0354
▁diretamente	-10.0357
far	-10.0364
ológica	-10.0364
▁lucas	-10.0364
32	-10.0366
▁grega	-10.0369
▁contratado	-10.0371
▁barra	-10.0376
▁$	-10.0386
▁realmente	-10.0395
ding	-10.04
▁coração	-10.0407
▁atuando	-10.0413
▁devem	-10.0418
▁dale	-10.0426
▁ep	-10.0432
▁procura	-10.0432
▁publica	-10.0434
▁continental	-10.0451
▁faleceu	-10.0451
▁méxico	-10.0451
▁possibilidade	-10.0451
▁almeida	-10.0451
▁empresário	-10.0451
▁posições	-10.0451
▁frase	-10.0453
▁tentou	-10.0454
▁1981	-10.0454
▁heart	-10.0455
geral	-10.0456
▁libertadora	-10.0457
kin	-10.0458
▁sinal	-10.0462
▁aberto	-10.0465
xa	-10.0466
▁aeronaves	-10.0474
▁colocado	-10.0486
▁sun	-10.0496
▁associado	-10.0512
ografia	-10.0516
▁william	-10.052
▁ações	-10.0524
▁design	-10.0527
rey	-10.0549
▁catedral	-10.0556
▁construir	-10.0556
▁joaquim	-10.0556
▁álbuns	-10.0556
▁masculino	-10.0556
▁trás	-10.0556
▁impedi	-10.0556
▁wilson	-10.0558
▁residência	-10.0558
▁1940	-10.0559
meados	-10.056
▁veículos	-10.0565
▁navio	-10.0565
▁badajoz	-10.0582
▁nieuport	-10.0584
pó	-10.0596
▁win	-10.0604
ben	-10.0609
▁gravado	-10.0627
▁retorno	-10.0628
▁cir	-10.0635
▁pena	-10.0644
▁han	-10.0648
▁aproxima	-10.0661
▁consequência	-10.0661
▁necessidade	-10.0661
▁secundário	-10.0661
▁wanano	-10.0661
▁militância	-10.0661
▁sexta	-10.0661
▁reconhecido	-10.0663
▁andré	-10.0664
▁palco	-10.0675
ston	-10.0689
tino	-10.0695
bilidade	-10.07
▁tratado	-10.0701
▁fundado	-10.0704
▁36	-10.0713
▁ken	-10.0715
ity	-10.0722
▁coloca	-10.0723
▁redor	-10.0724
▁times	-10.0726
▁90	-10.0736
▁ativo	-10.075
ácio	-10.0755
▁rosa	-10.0756
▁prepara	-10.0766
▁basquete	-10.0767
▁afonso	-10.0767
▁descobre	-10.0767
▁comprimento	-10.0767
▁rafael	-10.0767
▁revelou	-10.0767
▁jesus	-10.0768
▁presidência	-10.0768
petiu	-10.0769
▁aberta	-10.0775
▁alex	-10.0777
▁1968	-10.0777
▁qu	-10.0779
▁ala	-10.0785
▁all	-10.079
▁radio	-10.0793
47	-10.0795
gna	-10.0796
▁aumenta	-10.0822
▁caracteriza	-10.0827
▁chris	-10.083
▁ampla	-10.0838
▁críticos	-10.0841
[	-10.0862
ave	-10.0864
▁hot	-10.0868
▁alguma	-10.087
nk	-10.0872
▁ly	-10.0874
▁economia	-10.0875
▁frequência	-10.0875
▁oportunidade	-10.0875
▁uruguai	-10.0875
▁folha	-10.0875
▁atleta	-10.0875
▁percebe	-10.0875
▁legislação	-10.0875
▁estátua	-10.0875
▁nós	-10.0875
▁disney	-10.0876
▁edições	-10.0877
▁trabalhadores	-10.0879
▁mineiro	-10.0885
▁colocação	-10.0885
▁2016.	-10.0886
▁simplesmente	-10.0893
ológico	-10.0897
▁cru	-10.0899
▁volume	-10.0899
uri	-10.09
▁problema	-10.0901
gli	-10.0903
▁pará	-10.0904
ena	-10.0907
▁juvenil	-10.092
▁neto	-10.0931
37	-10.0935
way	-10.0935
▁41	-10.0948
▁cena	-10.0953
▁mão	-10.0959
▁gro	-10.0962
69	-10.0963
ick	-10.0965
▁she	-10.0971
▁star	-10.0974
dd	-10.0975
▁performance	-10.0984
▁religiosa	-10.0984
▁sítio	-10.0984
▁thomas	-10.0984
▁aldeia	-10.0984
▁bla	-10.0984
▁topo	-10.0984
▁1948	-10.0986
▁terem	-10.0988
▁breve	-10.0989
▁hall	-10.099
▁normalmente	-10.0992
bol	-10.0995
▁sar	-10.0997
▁play	-10.1
▁dizer	-10.1002
▁anunciada	-10.1004
din	-10.1012
▁montanha	-10.1014
▁rou	-10.1021
▁bou	-10.1026
▁autores	-10.1032
ign	-10.1039
mal	-10.104
adores	-10.1049
▁neu	-10.1051
cent	-10.1061
▁canta	-10.1063
▁autoridades	-10.1066
▁recursos	-10.1074
▁dj	-10.1077
▁post	-10.1077
▁exterior	-10.1081
hen	-10.1089
▁fal	-10.1091
▁tempos	-10.1093
▁engenharia	-10.1093
▁monumento	-10.1093
▁promoção	-10.1093
▁concentra	-10.1093
▁emprego	-10.1094
▁global	-10.1094
▁universitário	-10.1094
▁evitar	-10.1094
▁cristo	-10.1095
▁investigações	-10.1097
▁1916	-10.1097
▁distribuição	-10.1098
▁video	-10.1099
▁har	-10.1103
▁descrito	-10.1103
22	-10.1107
▁dado	-10.1112
▁beira	-10.1115
▁32	-10.1116
0%	-10.1117
▁ang	-10.1118
▁tim	-10.1123
▁componente	-10.1126
▁clã	-10.1127
▁citado	-10.1128
▁chegando	-10.1129
▁fazem	-10.113
88	-10.1137
quer	-10.114
▁antigos	-10.1142
eiras	-10.1154
ong	-10.1156
tivas	-10.1184
▁historiador	-10.1192
tti	-10.12
pé	-10.1201
▁championship	-10.1205
▁histórica	-10.1205
▁tailândia	-10.1205
▁ajudou	-10.1205
▁alegre	-10.1205
▁instituição	-10.1205
▁razão	-10.1205
▁carrega	-10.1205
▁baroni	-10.1205
ística	-10.1206
▁representou	-10.1206
▁abriu	-10.1206
▁pastor	-10.1206
▁will	-10.1207
▁ataques	-10.1208
▁1963	-10.1208
▁observa	-10.121
▁taça	-10.1216
▁atacante	-10.122
ônico	-10.1221
▁desenvolve	-10.1241
tive	-10.1242
▁grave	-10.1243
▁alvo	-10.1243
esta	-10.1246
▁negro	-10.1246
▁nada	-10.1259
▁xx	-10.1264
▁manet	-10.1264
▁estações	-10.1268
▁frei	-10.1273
▁sangue	-10.1275
▁tar	-10.1275
yn	-10.1275
▁enfrentar	-10.128
pol	-10.1284
dr	-10.1285
▁meia	-10.1308
ski	-10.1309
ânia	-10.1317
▁dividida	-10.1317
▁especiais	-10.1317
▁incluído	-10.1317
▁aventura	-10.1317
▁dramático	-10.1317
▁legal	-10.1321
▁registro	-10.1323
▁prote	-10.1325
vá	-10.1327
▁filiado	-10.1332
▁37	-10.1334
▁sucedido	-10.1334
▁designação	-10.1335
▁analis	-10.1338
▁girl	-10.1344
icos	-10.1353
tais	-10.1355
▁yo	-10.1356
gin	-10.1358
del	-10.1358
▁ligação	-10.1369
▁terras	-10.1376
ctor	-10.1378
▁jan	-10.1388
gê	-10.1401
▁negócios	-10.1402
▁modelos	-10.1411
▁dur	-10.1412
ndra	-10.1413
ial	-10.1414
uto	-10.1416
▁cristão	-10.1417
▁feitas	-10.142
▁conferência	-10.1431
▁fábrica	-10.1431
▁religioso	-10.1431
▁delegado	-10.1432
▁obter	-10.1432
▁exame	-10.1432
▁1908	-10.1433
▁jack	-10.1446
▁fox	-10.1449
▁presentes	-10.1462
ii	-10.1463
▁france	-10.1468
fal	-10.148
▁ramos	-10.149
age	-10.15
▁cup	-10.1503
aria	-10.1504
▁queria	-10.1506
▁vencer	-10.1521
▁0,0	-10.1528
▁resto	-10.154
velmente	-10.1544
▁compra	-10.1544
▁assassinado	-10.1545
▁matemática	-10.1545
▁concelho	-10.1545
▁joseph	-10.1545
▁pergunta	-10.1545
americanos	-10.1547
▁green	-10.1547
▁armado	-10.1548
▁menino	-10.1549
▁etapa	-10.1551
mortal	-10.1551
▁tomou	-10.1576
▁gravada	-10.1583
ford	-10.1587
nny	-10.1588
▁bas	-10.1591
▁viveu	-10.1594
▁órgão	-10.1595
▁neo	-10.1595
▁proteínas	-10.1603
vas	-10.1605
▁norma	-10.1613
▁células	-10.1614
▁pequenos	-10.1618
▁nota	-10.1625
▁mãos	-10.1635
sur	-10.1638
▁suficiente	-10.1662
▁linguagem	-10.1662
▁mídia	-10.1662
▁direita	-10.1662
▁braço	-10.1662
▁entidade	-10.1662
▁humana	-10.1663
▁testa	-10.1668
▁1920	-10.1669
▁venezuela	-10.1675
▁localização	-10.1678
▁mont	-10.1678
▁(2003	-10.168
▁confirma	-10.1683
▁garanti	-10.1689
▁escolas	-10.1692
real	-10.1702
▁rebel	-10.1707
▁2.	-10.1708
▁esporte	-10.1714
▁rob	-10.1714
▁criança	-10.1716
▁46	-10.1717
▁cro	-10.1719
▁dura	-10.1723
▁2010.	-10.1724
ás	-10.1727
▁juntou	-10.1729
põe	-10.1737
▁fri	-10.1742
▁rose	-10.1755
▁má	-10.1757
pes	-10.1767
▁planeja	-10.1777
também	-10.1778
field	-10.1779
▁convocada	-10.1779
▁hollywood	-10.1779
▁transferência	-10.1779
▁unânime	-10.1779
▁cancel	-10.178
▁instrumento	-10.1781
tividade	-10.1782
▁aulas	-10.1784
-9	-10.1784
▁teologia	-10.1784
▁mark	-10.1786
▁timor	-10.1787
end	-10.1791
▁questão	-10.1792
▁completamente	-10.1796
▁persa	-10.1797
▁bob	-10.1802
▁asas	-10.181
▁investigados	-10.1812
corre	-10.1814
▁companheiros	-10.1815
mico	-10.1817
ight	-10.182
▁williams	-10.182
▁fundou	-10.1823
bit	-10.1831
▁propriedade	-10.1835
▁coisas	-10.185
▁chave	-10.1852
tem	-10.1862
▁temporadas	-10.1868
▁cole	-10.1873
▁funda	-10.1874
▁medida	-10.1875
▁band	-10.1887
▁pequenas	-10.1893
gráfico	-10.1898
▁convocado	-10.1898
▁papéis	-10.1898
▁ônibus	-10.1898
▁esportivo	-10.1898
▁santuário	-10.1898
▁suécia	-10.1898
▁parlamento	-10.1898
▁rodrigues	-10.1898
▁provoca	-10.1899
▁formula	-10.1899
▁bueno	-10.1899
▁concorre	-10.1899
▁limite	-10.1899
▁1942	-10.1901
▁elabora	-10.1901
▁animação	-10.1902
▁organizações	-10.1904
▁integrantes	-10.1908
nova	-10.1914
▁ataca	-10.1915
▁produzir	-10.1916
▁captura	-10.1918
vil	-10.1918
▁facto	-10.1919
▁dvd	-10.1923
▁gosta	-10.1927
▁saiu	-10.194
▁assinado	-10.1943
▁cima	-10.1949
▁mudanças	-10.1952
▁jr	-10.1953
sha	-10.1963
▁brit	-10.1965
▁pesado	-10.1965
long	-10.1974
▁pressão	-10.1982
▁componentes	-10.1983
ici	-10.1983
▁cass	-10.1985
▁ante	-10.2002
▁servi	-10.2003
▁passando	-10.2006
▁conseguir	-10.2015
▁estudantil	-10.2019
▁execução	-10.2019
▁frederico	-10.2019
▁influencia	-10.2019
▁liberdade	-10.2019
▁monoplano	-10.2019
▁núcleo	-10.2019
▁miami	-10.2019
▁seleções	-10.2019
▁iraque	-10.2019
red	-10.202
▁tecido	-10.2021
▁mod	-10.2026
▁ingressou	-10.2028
camp	-10.203
▁circula	-10.2035
▁relacionados	-10.2035
▁raça	-10.2038
▁mur	-10.204
▁usados	-10.2048
▁participaram	-10.205
▁his	-10.2064
▁300	-10.2064
▁tornaram	-10.2065
.1	-10.2068
▁reuni	-10.2069
▁artigo	-10.2085
ério	-10.2096
▁marcos	-10.2098
plan	-10.21
▁sai	-10.2109
▁carros	-10.2127
▁34	-10.2129
▁colabor	-10.2141
▁alguém	-10.2141
▁contexto	-10.2141
▁código	-10.2141
▁grécia	-10.2141
▁hélice	-10.2141
▁máquina	-10.2141
▁flash	-10.2142
ring	-10.2147
▁habilidades	-10.2153
▁xix	-10.2155
▁hora	-10.2169
▁2004,	-10.2175
▁totalmente	-10.2176
vé	-10.2179
▁cita	-10.2181
▁relata	-10.2181
▁oscar	-10.2184
▁adota	-10.2192
lson	-10.2194
";	-10.2194
▁identificado	-10.2197
ila	-10.2198
▁tur	-10.2211
▁curto	-10.2214
▁bola	-10.2217
uca	-10.222
árias	-10.222
▁saber	-10.2228
▁organiza	-10.2237
pin	-10.2245
▁vê	-10.2246
▁vereador	-10.2251
logia	-10.2256
responsabilidade	-10.2264
▁agrícola	-10.2264
▁incorpora	-10.2264
▁permanente	-10.2264
▁infância	-10.2264
▁tarefa	-10.2264
▁combina	-10.2264
▁comemora	-10.2264
▁colônia	-10.2265
▁imediatamente	-10.2267
▁1965	-10.2269
▁hero	-10.2269
▁cali	-10.2271
filme	-10.2273
▁assina	-10.2276
tus	-10.2281
▁mat	-10.2282
▁aln	-10.2287
▁trem	-10.2289
mais	-10.2296
▁crise	-10.2297
▁ita	-10.2299
ace	-10.2299
▁visa	-10.2303
▁boy	-10.231
51	-10.232
▁tira	-10.2321
tário	-10.2326
▁rui	-10.2329
pet	-10.2333
▁light	-10.2334
lip	-10.2336
▁flores	-10.2338
ella	-10.2352
▁chu	-10.237
rais	-10.2378
▁recente	-10.2383
mil	-10.2389
rn	-10.2389
▁acadêmico	-10.2389
▁clássica	-10.2389
▁espectro	-10.2389
▁juventude	-10.2389
▁segredo	-10.2389
▁fluxo	-10.2389
▁bahá	-10.2389
▁questões	-10.239
▁caixa	-10.239
▁nelson	-10.2391
▁sediado	-10.2391
▁aliados	-10.2403
▁mary	-10.2405
espa	-10.2409
▁química	-10.241
▁presa	-10.241
▁carl	-10.2412
mática	-10.2418
▁bio	-10.2418
▁conhece	-10.2419
ori	-10.2424
▁acha	-10.2424
▁chegada	-10.2429
▁vítimas	-10.2435
poli	-10.2441
inclu	-10.2444
▁vitórias	-10.245
0.000	-10.2452
inter	-10.2458
▁coroa	-10.2463
▁47	-10.2467
▁dispositivo	-10.2469
▁vítima	-10.2469
sul	-10.2471
▁defender	-10.248
▁serve	-10.2481
▁jun	-10.2487
▁testes	-10.2496
ft	-10.2497
▁juntos	-10.2512
▁fla	-10.2514
▁difícil	-10.2516
▁júnior	-10.2516
▁ocasião	-10.2516
▁rebaixados	-10.2516
▁sexual	-10.2516
▁youtube	-10.2516
▁grosso	-10.2516
▁detalhes	-10.2516
▁condenado	-10.2516
▁produziu	-10.2516
▁taxa	-10.2519
▁tomar	-10.252
▁lopes	-10.252
▁1918	-10.2521
▁significativa	-10.253
▁viver	-10.253
▁ocorreram	-10.2544
▁fabricante	-10.2546
▁mol	-10.2548
▁song	-10.2549
▁estuda	-10.255
ach	-10.2555
▁quilômetros	-10.2561
▁at	-10.2562
▁cas	-10.2568
▁cel	-10.2572
▁ato	-10.2574
▁pol	-10.2574
▁(;	-10.2577
▁efeito	-10.2589
41	-10.2597
▁foto	-10.26
ñ	-10.2608
▁neves	-10.2617
ene	-10.2617
1)	-10.2625
▁similar	-10.2631
gada	-10.2633
-18	-10.2639
▁católico	-10.2644
▁feminina	-10.2644
▁portugueses	-10.2644
▁brilhante	-10.2644
▁talvez	-10.2644
▁smith	-10.2644
▁gravou	-10.2644
▁proporciona	-10.2644
▁domingo	-10.2645
▁vendido	-10.2645
▁miranda	-10.2645
ticamente	-10.2646
▁libertação	-10.2649
▁dirigente	-10.2651
▁ramo	-10.2652
body	-10.2653
▁aspectos	-10.2653
▁aqui	-10.2656
▁psd	-10.266
▁western	-10.2663
▁gold	-10.2663
▁levando	-10.267
▁longe	-10.2672
▁luis	-10.2684
▁menciona	-10.2687
▁national	-10.269
▁cab	-10.2693
tero	-10.2695
▁american	-10.2699
▁físicas	-10.2718
▁animado	-10.272
▁(16	-10.2722
unda	-10.2726
▁nacionais	-10.2726
▁aceita	-10.2729
6.	-10.2729
▁deriva	-10.2733
▁companheiro	-10.2734
▁sab	-10.2739
▁passo	-10.2744
▁max	-10.2745
▁humano	-10.2746
▁cenas	-10.275
▁anual	-10.2762
lor	-10.2765
▁rico	-10.2772
▁mini	-10.2772
▁sistemas	-10.2774
▁conclusão	-10.2774
▁dólares	-10.2774
▁imperial	-10.2774
▁projetado	-10.2774
▁soviética	-10.2774
▁violência	-10.2774
▁crescimento	-10.2774
▁atingiu	-10.2774
▁recém	-10.2774
▁pediu	-10.2774
▁semifinal	-10.2774
▁amostra	-10.2775
▁mangá	-10.2775
mini	-10.2775
▁museum	-10.2776
▁1941	-10.2776
▁colaboração	-10.2777
▁risco	-10.2777
▁buie	-10.2782
▁with	-10.2783
categoria	-10.2785
▁barry	-10.2785
▁armada	-10.2794
▁foco	-10.2814
▁dedicado	-10.2816
▁trama	-10.2818
▁dispositivos	-10.2822
▁efeitos	-10.2823
▁marcha	-10.2823
som	-10.2824
▁fé	-10.2829
ificação	-10.2836
▁doutor	-10.2842
▁manda	-10.2843
▁leite	-10.2847
▁alunos	-10.2848
ence	-10.2858
▁desaparecido	-10.287
4)	-10.2875
gun	-10.2877
▁tru	-10.2886
feira	-10.2889
well	-10.2891
▁cá	-10.2899
▁comércio	-10.2906
▁físico	-10.2906
▁identidade	-10.2906
▁máximo	-10.2906
▁pinheiro	-10.2906
▁ribeiro	-10.2906
▁tradicionais	-10.2906
▁inverno	-10.2906
▁poesia	-10.2906
▁atribuído	-10.2906
▁seguiu	-10.2906
▁terreno	-10.2906
▁naquela	-10.2907
▁sexto	-10.2907
▁1917	-10.2909
▁walter	-10.2912
▁eixo	-10.2912
▁count	-10.2912
▁adaptação	-10.2914
▁entertainment	-10.2916
▁realidade	-10.2921
▁ilhas	-10.2922
▁ji	-10.2924
▁sta	-10.2929
▁números	-10.2933
▁2022	-10.2936
▁formar	-10.2939
▁lembra	-10.2942
▁desenvolveu	-10.2945
▁sport	-10.2961
▁fêmeas	-10.2965
▁pesquisas	-10.2966
▁programação	-10.2969
▁pcb	-10.2973
▁envolve	-10.2981
bili	-10.2993
ek	-10.2999
▁floresta	-10.3012
▁participantes	-10.3015
▁2009.	-10.3017
▁enviado	-10.3025
ique	-10.3027
▁evolução	-10.3039
▁flamengo	-10.3039
▁instituições	-10.3039
▁jornada	-10.3039
▁símbolo	-10.3039
▁videoclipe	-10.3039
▁áustria	-10.3039
▁potência	-10.3039
▁cadeira	-10.3039
▁herói	-10.3039
ile	-10.3039
▁igp	-10.3039
▁michel	-10.304
▁claro	-10.304
▁graças	-10.3041
▁investimento	-10.3042
▁1946	-10.3042
▁vazão	-10.3044
▁cores	-10.3044
ov	-10.3044
▁igualmente	-10.3045
▁iniciativa	-10.3046
▁investigação	-10.3047
▁alter	-10.3053
▁podia	-10.3054
▁territórios	-10.3061
▁fin	-10.3062
▁lateral	-10.3063
▁valores	-10.3065
▁augusta	-10.3074
▁gran	-10.3077
▁aqueles	-10.3078
▁ford	-10.3092
▁char	-10.3094
▁encontrou	-10.3098
▁color	-10.3101
ain	-10.311
low	-10.3111
▁blue	-10.3115
▁romana	-10.3118
▁lança	-10.3138
fabriciano	-10.3174
▁antónio	-10.3174
▁candidatura	-10.3174
▁eventualmente	-10.3174
▁guilherme	-10.3174
▁intitulada	-10.3174
▁islâmico	-10.3174
▁kyrgios	-10.3174
▁lorenzo	-10.3174
▁ocupou	-10.3174
▁espalha	-10.3174
▁fazenda	-10.3174
▁chamou	-10.3174
▁draft	-10.3174
▁fãs	-10.3174
▁quadro	-10.3175
▁talento	-10.3175
▁aborda	-10.3175
pur	-10.3177
▁1936	-10.3177
▁1977	-10.3177
▁1961	-10.3178
▁exigi	-10.3178
▁quartas	-10.3178
▁royal	-10.3179
▁aires	-10.3193
▁castro	-10.3194
7.	-10.3197
▁restaurante	-10.3199
▁loja	-10.32
▁geração	-10.32
▁defendeu	-10.3201
▁espi	-10.3202
▁franco	-10.3203
▁coronel	-10.3205
▁restante	-10.3205
▁fio	-10.3209
▁league	-10.3213
posição	-10.3213
▁primo	-10.3222
5%	-10.3226
▁camp	-10.3228
▁div	-10.3229
▁constante	-10.3234
▁alega	-10.3237
▁origi	-10.3238
▁000	-10.3247
▁cumpri	-10.3252
▁antoinette	-10.3255
dri	-10.3257
▁pilotos	-10.326
▁pira	-10.3261
▁estudar	-10.3267
▁realizados	-10.3269
▁gui	-10.3274
▁tela	-10.3286
pete	-10.3288
▁deveria	-10.3293
▁king	-10.3307
▁colo	-10.3308
▁quadra	-10.3308
stein	-10.331
▁repeti	-10.3311
▁constantino	-10.3311
▁arquitetura	-10.3311
▁comerciais	-10.3311
▁controvérsia	-10.3311
▁jardim	-10.3311
▁materiais	-10.3311
▁personalidade	-10.3311
▁vermelha	-10.3311
▁licença	-10.3311
▁branca	-10.3311
▁proibi	-10.3311
ístico	-10.3313
▁fugir	-10.3314
▁patente	-10.3315
▁equipado	-10.3315
▁cruzeiro	-10.3316
▁machos	-10.3317
▁verdadeiro	-10.3318
▁russa	-10.3318
▁compartilha	-10.3325
▁liderança	-10.3326
▁conto	-10.3331
▁finalização	-10.3332
▁planos	-10.3335
▁municípios	-10.3335
▁lobo	-10.3336
▁simon	-10.3338
▁deixando	-10.3347
▁movimentos	-10.3348
dis	-10.3354
cola	-10.3362
▁usou	-10.3364
iba	-10.3372
cimento	-10.3374
▁white	-10.3378
▁semi	-10.3382
pr	-10.3386
pôs	-10.3396
▁exibido	-10.3405
▁2018.	-10.3408
▁il	-10.341
mático	-10.3414
úl	-10.3416
▁depende	-10.3419
flex	-10.342
▁seriam	-10.3425
cção	-10.3426
▁guerrilheiro	-10.3429
▁agente	-10.3434
▁pun	-10.3434
ello	-10.3441
elli	-10.3443
osaurus	-10.3449
▁protagonista	-10.345
▁quadrinhos	-10.345
▁kombat	-10.345
▁pictures	-10.345
▁tradução	-10.345
▁comportamento	-10.345
▁circuito	-10.345
▁mistura	-10.345
▁protecção	-10.345
▁feitos	-10.3451
▁online	-10.3451
fast	-10.3452
▁instalações	-10.3453
ome	-10.3453
▁tenente	-10.3453
▁falso	-10.3454
▁sinais	-10.3454
▁pontuação	-10.3456
dina	-10.3459
atual	-10.3459
▁sor	-10.346
nis	-10.3461
terrorista	-10.3464
▁viola	-10.3464
▁zé	-10.3464
▁cerco	-10.3465
▁venda	-10.3472
▁life	-10.3479
▁eleitores	-10.348
pra	-10.348
aceae	-10.3482
▁ligações	-10.3487
3,	-10.3496
▁reitor	-10.3508
▁formas	-10.3523
▁sou	-10.3523
▁especialista	-10.3538
▁nobre	-10.3552
▁cura	-10.356
▁avança	-10.3569
edit	-10.3573
▁método	-10.3573
▁viu	-10.3584
▁antetokounmpo	-10.3591
▁araguaia	-10.3591
▁thalberg	-10.3591
▁transferido	-10.3591
▁transferiu	-10.3591
▁wittenberg	-10.3591
▁matéria	-10.3591
▁visual	-10.3591
▁famosa	-10.3591
▁sugeri	-10.3591
▁ideal	-10.3591
▁jacob	-10.3592
▁yoshi	-10.3592
▁martinho	-10.3594
▁black	-10.3595
▁machado	-10.3596
▁paraguai	-10.3598
▁pobre	-10.3599
▁parente	-10.3602
lei	-10.3605
▁oriente	-10.3607
chen	-10.3609
cap	-10.361
▁1958	-10.3611
▁fred	-10.3619
▁sasaki	-10.3619
▁comunidades	-10.3626
▁acusado	-10.3627
▁alcançar	-10.3629
uk	-10.3633
ted	-10.3634
▁industrial	-10.3638
.2	-10.364
▁agregado	-10.3644
▁48	-10.3646
▁joel	-10.3657
pal	-10.367
▁wood	-10.3675
zen	-10.3686
▁sofre	-10.3692
cht	-10.3697
press	-10.3698
▁promover	-10.3714
▁concerto	-10.372
▁johann	-10.3721
▁veículo	-10.3722
▁on	-10.3725
▁faria	-10.3726
chu	-10.3732
▁aparição	-10.3734
▁inglesa	-10.3734
▁ludwig	-10.3734
▁modalidade	-10.3734
▁sepultado	-10.3734
▁virtual	-10.3734
▁surgiu	-10.3734
▁intenção	-10.3734
▁orlando	-10.3734
▁velha	-10.3734
▁scott	-10.3734
▁(13	-10.3735
▁atingir	-10.3736
▁duro	-10.3736
▁relacionamento	-10.3736
▁high	-10.3737
cop	-10.3737
▁configuração	-10.3739
▁1919	-10.374
▁humor	-10.3741
▁gás	-10.3743
▁decide	-10.3743
▁goleiro	-10.3743
▁anualmente	-10.3747
▁lua	-10.3752
▁telenovela	-10.3756
▁interpret	-10.3757
brasil	-10.3759
mio	-10.3761
▁rostock	-10.3764
▁53	-10.3768
▁afeta	-10.3783
gal	-10.379
▁guar	-10.3791
ped	-10.3806
▁libera	-10.3814
uz	-10.3816
▁mus	-10.3838
▁cama	-10.3842
▁habita	-10.385
▁forçado	-10.385
▁entrega	-10.3856
▁atores	-10.3856
bon	-10.386
▁nativa	-10.386
▁iml	-10.3865
▁diploma	-10.3866
▁51	-10.3869
entado	-10.3869
9.	-10.3874
▁integrante	-10.3877
arte	-10.3877
▁ciclismo	-10.3879
▁conselheiro	-10.3879
▁ucrânia	-10.3879
▁aeroporto	-10.3879
▁determinada	-10.3879
▁nordeste	-10.3879
▁esportiva	-10.3879
▁permitir	-10.3879
▁invasão	-10.3879
▁ácido	-10.3879
▁fotografia	-10.3879
▁recusa	-10.3881
fan	-10.3882
▁aplicativo	-10.3883
▁apoia	-10.3884
5.	-10.3888
▁poemas	-10.3889
▁correspondente	-10.389
▁rumo	-10.3894
ficado	-10.3894
▁fixa	-10.3902
▁conseguiram	-10.3904
oli	-10.3904
nus	-10.3905
wan	-10.3908
▁edifícios	-10.3912
▁gama	-10.3913
▁(2	-10.3916
2)	-10.3919
▁pior	-10.3925
parti	-10.3927
▁controla	-10.3932
▁desenvolver	-10.3934
▁2021,	-10.3943
versa	-10.3947
▁nosso	-10.3955
▁descobrir	-10.397
ky	-10.397
▁bot	-10.3972
▁cresce	-10.3973
▁mr	-10.3974
▁esforços	-10.3979
▁contribui	-10.3982
yama	-10.3984
▁poderes	-10.3986
▁2017.	-10.3987
▁juli	-10.3991
▁cast	-10.4002
▁lou	-10.4002
▁processos	-10.4005
▁utilizados	-10.401
▁apresentar	-10.4011
▁direta	-10.4014
▁perda	-10.4015
▁capítulo	-10.4021
nome	-10.4022
▁dirigiu	-10.4026
▁goiás	-10.4026
▁género	-10.4026
▁impacto	-10.4026
▁desafio	-10.4026
▁enorme	-10.4026
▁jaime	-10.4026
desambi	-10.4026
▁vanguarda	-10.4026
▁sugere	-10.4026
▁princesa	-10.4027
▁culto	-10.4027
▁empate	-10.4028
▁1938	-10.4029
▁perdido	-10.4029
▁sexo	-10.4029
▁madrid	-10.403
▁ferido	-10.4032
▁ré	-10.4033
▁horário	-10.4033
▁dop	-10.4033
▁naturalidade	-10.4037
▁músico	-10.4038
▁villa	-10.4042
▁motorista	-10.4063
guação	-10.4065
▁trabalhando	-10.407
ins	-10.4077
ete	-10.4078
▁autoria	-10.4081
▁descreveu	-10.4084
▁pico	-10.4088
▁antigas	-10.4093
lega	-10.4098
fil	-10.4112
▁séculos	-10.4113
5,	-10.4118
▁vídeos	-10.4126
▁torres	-10.4131
▁quebra	-10.4141
▁(1	-10.4144
▁0.	-10.4156
:"2	-10.4167
▁continuar	-10.417
▁econômico	-10.4175
▁estratégia	-10.4175
▁fórmula	-10.4175
▁positiva	-10.4175
▁enviou	-10.4175
▁peixe	-10.4175
▁privado	-10.4175
▁latim	-10.4175
▁condado	-10.4176
▁retrata	-10.4177
▁prédio	-10.4177
▁1934	-10.4179
▁asteca	-10.418
▁missões	-10.418
▁estende	-10.4181
▁fortes	-10.4182
▁alves	-10.4184
▁comuns	-10.4192
▁charlotte	-10.4192
▁tribo	-10.4193
▁vírus	-10.4196
▁war	-10.42
▁eric	-10.4205
▁líderes	-10.4207
▁beck	-10.4207
▁minha	-10.4211
▁haver	-10.4213
▁conheceu	-10.4215
crito	-10.4224
▁possuía	-10.4232
iv	-10.4233
canção	-10.4237
-10	-10.4248
▁stone	-10.4257
yer	-10.4261
teiro	-10.4262
▁cron	-10.4263
▁indicado	-10.4263
ice	-10.428
nov	-10.4283
cept	-10.4288
▁ideias	-10.4289
▁restaura	-10.4289
▁ice	-10.4289
▁55	-10.4291
▁metro	-10.4306
bó	-10.4317
gel	-10.4322
▁cin	-10.4326
▁dividido	-10.4326
▁firmino	-10.4326
▁individuais	-10.4326
▁integrou	-10.4326
▁mecanismo	-10.4326
▁xavier	-10.4326
▁manhã	-10.4326
▁econômica	-10.4326
▁parceiro	-10.4326
▁ásia	-10.4327
▁fighting	-10.4328
▁rival	-10.4329
pop	-10.433
▁moeda	-10.433
ólogo	-10.4331
▁nulos	-10.4332
▁funcionários	-10.4337
▁sá	-10.434
▁recentemente	-10.4341
sel	-10.4347
▁particularmente	-10.4348
▁hon	-10.435
8.	-10.4353
▁tha	-10.4358
▁pt	-10.436
▁investi	-10.4364
▁completar	-10.4365
▁amador	-10.4367
tária	-10.4369
off	-10.4374
▁2008.	-10.4375
▁home	-10.4379
▁coro	-10.4382
▁blanc	-10.4383
▁fur	-10.439
▁estima	-10.4391
▁way	-10.4392
▁revelado	-10.4398
▁night	-10.4408
▁atira	-10.4419
▁iniciada	-10.4425
▁indivíduos	-10.4432
▁=	-10.4437
▁ty	-10.444
▁terá	-10.4442
▁arquivos	-10.4448
▁chances	-10.4451
▁preocupa	-10.447
▁araújo	-10.448
▁específico	-10.448
▁estabelecido	-10.448
▁washington	-10.448
▁zeppelin	-10.448
▁muralha	-10.448
▁itabira	-10.448
▁sweet	-10.448
▁consegue	-10.448
▁ciclo	-10.448
▁batista	-10.448
▁ofensiva	-10.4481
▁pista	-10.4481
▁elegeu	-10.4481
▁tivesse	-10.4481
▁association	-10.4481
▁sentimento	-10.4483
▁exclusivamente	-10.4486
▁aplicação	-10.4486
▁coordena	-10.4495
▁one	-10.45
kan	-10.45
▁falha	-10.4501
▁lenda	-10.4502
ída	-10.4503
▁guerrilheiros	-10.4504
▁embarc	-10.4505
▁lava	-10.4508
▁viria	-10.4514
▁saint	-10.4515
▁cresceu	-10.4515
▁hill	-10.4517
▁chegaram	-10.4518
▁sc	-10.4523
▁glo	-10.4526
▁africano	-10.4529
back	-10.4533
ína	-10.4539
▁andar	-10.4542
pot	-10.4543
▁pala	-10.4547
▁voos	-10.455
▁hp	-10.4553
fix	-10.4553
had	-10.4554
▁castel	-10.4559
▁carga	-10.4561
▁dinossauros	-10.4565
▁debate	-10.4578
▁indicada	-10.4579
ceu	-10.4579
▁registros	-10.4582
dan	-10.4585
ret	-10.4586
▁sétim	-10.46
▁just	-10.4609
illa	-10.4624
▁kea	-10.4632
▁agricultura	-10.4636
▁décima	-10.4636
▁emprestado	-10.4636
▁individual	-10.4636
▁infantil	-10.4636
▁passageiros	-10.4636
▁possivelmente	-10.4636
▁sebastião	-10.4636
▁semifinais	-10.4636
▁ultimat	-10.4636
▁assistente	-10.4636
▁estrangeiro	-10.4636
▁arthur	-10.4636
▁manoel	-10.4637
▁moderno	-10.4637
▁bruno	-10.4637
ônio	-10.4637
▁international	-10.4637
▁invadi	-10.4637
▁inaugurada	-10.4639
▁1933	-10.464
▁animal	-10.4644
▁expressão	-10.4646
▁doutorado	-10.4647
▁diferença	-10.4651
▁indicações	-10.4652
▁integração	-10.4653
quin	-10.4659
▁vindo	-10.4662
top	-10.4665
dente	-10.4665
▁concluiu	-10.4666
▁figuras	-10.4682
▁letra	-10.4683
vê	-10.4686
▁vitor	-10.4687
▁divulgado	-10.4688
.”	-10.4701
!"	-10.4705
▁arco	-10.4716
▁normal	-10.4717
▁cursos	-10.4725
▁silv	-10.4727
itz	-10.474
sson	-10.4742
▁declara	-10.4743
▁house	-10.4744
▁montanhas	-10.4754
▁retornar	-10.4755
▁capturado	-10.4772
▁décadas	-10.4773
▁mapa	-10.478
lista	-10.4784
▁cava	-10.4784
▁1968,	-10.4785
▁públicos	-10.4788
▁assis	-10.4792
kai	-10.4793
▁aeronáutica	-10.4795
▁escritório	-10.4795
▁ferimentos	-10.4795
▁municipais	-10.4795
▁orquestra	-10.4795
▁respeito	-10.4795
▁alentejo	-10.4795
▁testemunha	-10.4795
▁óbito	-10.4795
▁studios	-10.4795
▁sobrinho	-10.4795
▁gigante	-10.4795
▁discurso	-10.4795
▁telefone	-10.4796
▁lorde	-10.4796
▁franceses	-10.4797
▁capela	-10.4797
▁dispara	-10.4798
▁aplicações	-10.4798
▁mudar	-10.4801
▁coletivo	-10.4801
▁identificação	-10.4802
▁aparentemente	-10.4802
▁tanque	-10.4803
▁morta	-10.4804
▁escrever	-10.4807
▁aquela	-10.4807
▁phil	-10.4808
▁preço	-10.481
▁cristã	-10.4815
▁verbo	-10.4815
▁avis	-10.4815
ores	-10.482
▁vendas	-10.4832
leste	-10.4833
▁diário	-10.4837
▁ó	-10.4845
▁terminando	-10.4846
▁atrai	-10.4856
▁vaz	-10.4862
▁dublado	-10.4862
▁tio	-10.4864
▁"“	-10.4864
lim	-10.4868
▁lançar	-10.4871
▁curva	-10.4873
▁liderado	-10.4875
▁novel	-10.4879
copa	-10.4882
▁mala	-10.4883
cada	-10.4883
▁roda	-10.4886
▁famílias	-10.4889
▁lógica	-10.489
▁peri	-10.4894
▁interpreta	-10.4907
▁gan	-10.4912
▁caminhos	-10.4915
▁derrub	-10.4915
▁mira	-10.4916
▁conserva	-10.492
tv	-10.4921
▁contend	-10.4923
▁revi	-10.4925
▁cy	-10.4925
“	-10.493
▁servir	-10.4932
▁ruas	-10.4935
▁fen	-10.4935
ik	-10.4943
▁gira	-10.4944
riz	-10.4946
▁gradua	-10.4949
marinho	-10.495
time	-10.4956
▁adolescente	-10.4956
▁amapá	-10.4956
▁consecutiva	-10.4956
▁diminui	-10.4956
▁disperso	-10.4956
▁documentário	-10.4956
▁elétrico	-10.4956
▁médica	-10.4956
▁referido	-10.4956
▁tavares	-10.4957
▁soares	-10.4957
▁homenagens	-10.4957
▁proteger	-10.4958
▁expressa	-10.4958
▁potencial	-10.4961
▁1935	-10.4961
▁medidores	-10.4969
▁vieira	-10.4974
inhos	-10.4977
▁voto	-10.4983
▁150	-10.4988
mg	-10.4989
cci	-10.499
▁estrelas	-10.4992
▁teste	-10.4995
▁gl	-10.4997
▁localiza	-10.5
▁west	-10.5006
▁larga	-10.5009
marinhos	-10.5011
▁shows	-10.5017
-2	-10.5023
▁sy	-10.5026
▁organizada	-10.5033
▁cm	-10.5039
▁barros	-10.5039
▁corrente	-10.504
?"	-10.505
▁senti	-10.5056
▁trabalhava	-10.5058
guer	-10.5072
metro	-10.5075
ric	-10.5076
ngel	-10.5083
iça	-10.5088
▁lutar	-10.5095
▁big	-10.5108
▁aero	-10.5113
▁estaria	-10.5113
▁estabelecer	-10.5114
▁express	-10.5116
▁traduz	-10.5119
cat	-10.512
parecimento	-10.512
▁alagoas	-10.512
▁aniversário	-10.512
▁arcebispo	-10.512
▁eclesiástica	-10.512
▁expansão	-10.512
▁fenômeno	-10.512
▁santiago	-10.512
▁transferida	-10.512
▁cientista	-10.512
▁filmagens	-10.512
▁gabriel	-10.512
▁candidata	-10.512
▁irlanda	-10.512
▁pudesse	-10.5121
▁lewis	-10.5121
▁artística	-10.5121
▁esperança	-10.5122
▁cidadãos	-10.5124
▁desconhecido	-10.5125
▁execut	-10.5126
▁fernandes	-10.5127
▁from	-10.5127
▁exibição	-10.5129
▁sousa	-10.5129
▁carey	-10.5131
▁perder	-10.5134
▁juiz	-10.5136
▁narra	-10.5141
ónica	-10.5144
▁micro	-10.5148
▁executado	-10.5153
▁circunstâncias	-10.5154
▁concorda	-10.5156
▁representante	-10.516
▁chance	-10.5162
▁fortaleza	-10.517
▁regra	-10.517
▁grã	-10.5174
▁começar	-10.5189
▁artigos	-10.5197
▁hop	-10.5199
çado	-10.5207
▁tam	-10.5216
▁médicos	-10.524
▁perna	-10.5243
▁kha	-10.5248
▁semelhantes	-10.5257
▁fins	-10.5267
▁sang	-10.5272
▁celular	-10.5275
iii	-10.5277
▁defende	-10.5277
=	-10.5278
gueira	-10.5282
▁joan	-10.5282
▁mono	-10.5284
▁disponíveis	-10.5287
▁eletrônico	-10.5287
▁inteligência	-10.5287
▁península	-10.5287
▁software	-10.5287
▁altitude	-10.5287
▁evidência	-10.5287
▁belém	-10.5287
▁anderson	-10.5287
▁bloco	-10.5287
▁clima	-10.5289
▁jones	-10.5293
▁vocalista	-10.5294
▁pastoral	-10.5295
▁hotel	-10.5296
▁rosto	-10.5306
rich	-10.5308
▁lançaram	-10.5309
part	-10.5311
▁representar	-10.5311
▁long	-10.5312
▁500	-10.5316
▁chart	-10.5319
▁característica	-10.5325
▁placar	-10.5326
▁registra	-10.5327
▁direto	-10.5327
▁52	-10.5328
▁mim	-10.5329
▁pmdb	-10.5352
▁conduz	-10.5355
7)	-10.5359
▁neve	-10.5364
▁arquivo	-10.5367
▁envia	-10.5369
▁sesi	-10.5374
▁transport	-10.5374
▁confirmado	-10.5376
▁kar	-10.539
▁erro	-10.5393
▁editor	-10.5407
▁derivado	-10.5408
▁investiga	-10.5412
▁moral	-10.5417
▁dessas	-10.5427
gy	-10.5435
▁terror	-10.5441
▁bell	-10.5442
▁luto	-10.5453
▁abd	-10.5454
▁atlético	-10.5457
▁científico	-10.5457
▁contrarrelógio	-10.5457
▁dirigida	-10.5457
▁financeiro	-10.5457
▁ginásio	-10.5457
▁universo	-10.5457
▁windows	-10.5457
▁zumbi	-10.5457
▁coimbra	-10.5457
▁paciente	-10.5457
▁cavaleiro	-10.5457
▁esquerdo	-10.5457
▁pátio	-10.5457
▁viajou	-10.5457
▁profunda	-10.5457
▁destacou	-10.5457
▁densidade	-10.5457
▁elogio	-10.5457
▁nominal	-10.5458
▁permitiu	-10.5458
▁1939	-10.5461
▁galeria	-10.5461
▁expedição	-10.5462
▁menina	-10.5462
▁mm	-10.5465
▁latina	-10.5471
▁observação	-10.5472
▁otto	-10.5473
▁urbano	-10.5474
▁adapta	-10.5477
▁bull	-10.5477
▁shin	-10.5477
▁métodos	-10.5477
▁result	-10.5479
▁promove	-10.548
▁representação	-10.5481
▁delas	-10.5482
▁utilização	-10.5483
▁tocar	-10.5485
▁culturais	-10.5486
▁sobrevive	-10.5487
▁cavalo	-10.5494
▁certificado	-10.5497
gri	-10.5498
▁negócio	-10.55
▁mun	-10.5502
▁jur	-10.5502
▁retom	-10.5513
▁recebendo	-10.5514
▁vela	-10.5517
vés	-10.5518
▁atende	-10.5522
▁0,1	-10.5526
▁peru	-10.5543
▁populares	-10.5545
▁aumentar	-10.5545
▁disciplina	-10.5546
miss	-10.5547
rig	-10.5551
essa	-10.5552
ington	-10.5555
pressão	-10.5562
▁medo	-10.5563
▁2021	-10.5564
▁page	-10.5564
▁levar	-10.5566
assi	-10.5566
liber	-10.5567
▁media	-10.5568
▁apresentam	-10.5569
▁rica	-10.5571
old	-10.5582
▁portal	-10.5599
▁beat	-10.5603
ográfica	-10.5628
▁adquiriu	-10.5629
▁aprovação	-10.5629
▁cinematográfica	-10.5629
▁dúvida	-10.5629
▁ferramenta	-10.5629
▁freguesia	-10.5629
▁indígena	-10.5629
▁islâmica	-10.5629
▁recomenda	-10.5629
▁troféu	-10.5629
▁âmbito	-10.5629
▁caetano	-10.5629
▁márcio	-10.5629
▁envolvimento	-10.5629
▁vizinha	-10.5629
▁sudeste	-10.5629
▁desenvolvida	-10.5629
▁herdeiro	-10.5629
▁idioma	-10.5629
▁uniforme	-10.5629
▁cliente	-10.5629
▁imagin	-10.5629
▁treino	-10.5629
▁sobretudo	-10.5629
▁roupas	-10.563
▁1931	-10.5633
▁1959	-10.5634
▁1996,	-10.5636
cnv	-10.5636
▁plant	-10.5637
▁latino	-10.5637
▁especificamente	-10.5638
▁lim	-10.5642
▁perdendo	-10.5646
▁pesca	-10.5646
▁cat	-10.5656
▁petit	-10.5659
▁acre	-10.5661
ônia	-10.5662
▁ducado	-10.5663
▁usuários	-10.5663
▁enfrenta	-10.5663
▁lidera	-10.5664
▁rivers	-10.5665
8)	-10.5666
▁samba	-10.5666
▁verso	-10.567
▁chan	-10.5675
▁oitava	-10.5678
▁angel	-10.568
▁sara	-10.5683
▁pagar	-10.5683
série	-10.5685
▁notável	-10.5691
▁creta	-10.5694
▁zi	-10.5697
▁science	-10.5698
án	-10.5702
▁urbana	-10.5703
▁segundos	-10.5705
row	-10.5706
▁nasce	-10.5723
▁palm	-10.5736
▁mencionado	-10.5736
▁audi	-10.5753
▁sup	-10.5753
▁introduzi	-10.5754
▁(12	-10.5759
bin	-10.5775
▁abertos	-10.5787
▁diferencia	-10.5788
▁award	-10.5789
jun	-10.5791
▁protestos	-10.5799
▁circunscrição	-10.5804
▁confirmou	-10.5804
▁empréstimo	-10.5804
▁financeira	-10.5804
▁prisioneiro	-10.5804
▁proprietário	-10.5804
▁determinado	-10.5804
▁retirada	-10.5804
▁defensor	-10.5804
▁bellator	-10.5804
▁liderou	-10.5804
▁vocais	-10.5804
▁milhão	-10.5804
▁gordon	-10.5804
▁pierre	-10.5804
▁apartamento	-10.5804
▁expandi	-10.5805
▁retirar	-10.5805
▁cuidado	-10.5805
▁seguindo	-10.5805
▁fabaceae	-10.5805
▁ilustra	-10.5805
▁bucks	-10.5805
▁jimmy	-10.5805
▁droga	-10.5805
▁garota	-10.5805
▁(2011	-10.5806
pic	-10.5808
▁1926	-10.5808
▁especializada	-10.581
▁moradores	-10.581
▁rural	-10.5811
▁(1999	-10.5812
ille	-10.5815
▁doze	-10.5815
▁declaração	-10.5816
psdb	-10.5816
pode	-10.5817
▁milton	-10.5818
▁deseja	-10.5819
▁johnson	-10.5819
▁descobriu	-10.5825
pú	-10.5826
▁medição	-10.5833
▁equipamentos	-10.5833
▁convence	-10.5838
▁realização	-10.5838
vista	-10.5839
▁excet	-10.5842
▁entraram	-10.5844
▁stan	-10.5846
▁anuncia	-10.5851
▁reve	-10.5853
▁pró	-10.5858
▁pioneiro	-10.5859
▁indivíduo	-10.586
▁esforço	-10.586
▁crítico	-10.5861
▁seriado	-10.5865
irá	-10.5872
nais	-10.5877
trans	-10.5877
▁fai	-10.5886
▁provas	-10.5886
▁lutador	-10.5891
▁relatos	-10.5893
▁acreditava	-10.5897
▁recon	-10.5902
▁esperado	-10.5916
▁elogia	-10.5918
▁europeus	-10.5923
house	-10.5924
▁próprios	-10.5934
down	-10.5935
▁conclui	-10.595
▁out	-10.5959
-17	-10.5962
▁familiar	-10.597
▁clo	-10.5975
▁sh	-10.5981
▁anthony	-10.5983
▁barbosa	-10.5983
▁cerimônia	-10.5983
▁denúncia	-10.5983
▁gabinete	-10.5983
▁guitarra	-10.5983
▁metrô	-10.5983
▁protótipo	-10.5983
▁trabalhista	-10.5983
▁zurique	-10.5983
▁gravataí	-10.5983
▁jornais	-10.5983
▁biplano	-10.5983
pcdob	-10.5983
▁empregado	-10.5983
▁mostrou	-10.5983
▁determinar	-10.5983
▁oficina	-10.5983
▁trajetória	-10.5983
▁cardoso	-10.5983
▁decreto	-10.5983
▁borges	-10.5983
▁bliss	-10.5983
▁renato	-10.5984
▁obrigado	-10.5984
▁denominada	-10.5985
▁coluna	-10.5986
▁vizinho	-10.5986
▁níveis	-10.5987
▁gravações	-10.5988
▁opção	-10.599
▁1921	-10.5991
▁mantém	-10.5993
▁frag	-10.5998
▁chão	-10.5998
▁johannes	-10.5999
▁cart	-10.5999
▁miller	-10.5999
flet	-10.6005
non	-10.6008
▁filmado	-10.6018
▁desloca	-10.6018
▁elevado	-10.602
▁gasto	-10.6025
▁matar	-10.6027
▁externas	-10.6029
bou	-10.604
▁fundamental	-10.6047
▁operado	-10.6049
rock	-10.6057
▁conhecer	-10.6074
lino	-10.6083
▁progress	-10.609
▁entregue	-10.6096
▁fabrica	-10.6112
▁ligada	-10.613
▁bandeira	-10.613
▁produz	-10.6133
king	-10.614
frut	-10.6144
▁geo	-10.615
▁colocados	-10.6158
▁vocal	-10.6161
▁apaixona	-10.6165
▁aprovado	-10.6165
▁bacharel	-10.6165
▁democracia	-10.6165
▁décimo	-10.6165
▁permitindo	-10.6165
▁rápido	-10.6165
▁society	-10.6165
▁temperatura	-10.6165
▁bobcats	-10.6165
▁incluída	-10.6165
▁ranking	-10.6165
▁sagrou	-10.6165
▁condição	-10.6165
▁albedo	-10.6165
▁centena	-10.6165
▁efetu	-10.6165
▁center	-10.6165
▁sarney	-10.6166
▁culpa	-10.6166
▁university	-10.6166
▁pouso	-10.6167
▁retirado	-10.6168
▁médias	-10.6168
▁briga	-10.6168
▁1952	-10.6169
▁1957	-10.6169
▁civis	-10.617
▁exposição	-10.6171
▁reunião	-10.6173
▁moura	-10.6178
▁perigo	-10.6179
▁milhar	-10.618
▁enf	-10.618
▁pp	-10.6181
▁colina	-10.6182
▁olhos	-10.619
▁state	-10.6198
rubi	-10.6198
▁fm	-10.6203
▁inimigos	-10.6218
▁reg	-10.6229
▁that	-10.6229
▁assumir	-10.6237
▁socialista	-10.624
human	-10.6241
▁bay	-10.6249
▁by	-10.6251
▁morrer	-10.6259
game	-10.6259
▁young	-10.6261
▁divulg	-10.6269
▁considerados	-10.6281
100	-10.6284
▁mito	-10.6287
▁pet	-10.6295
▁fama	-10.6298
▁mach	-10.6305
▁graf	-10.6307
▁flu	-10.6308
▁acompanhado	-10.6309
▁bandas	-10.6316
▁sustenta	-10.6322
▁albert	-10.6324
▁torturas	-10.6326
▁escapar	-10.6328
▁camb	-10.6332
riano	-10.6334
xxx	-10.6337
▁qualifica	-10.634
▁queda	-10.6342
▁jane	-10.6349
▁argentino	-10.635
▁bilhões	-10.635
▁critério	-10.635
▁democrático	-10.635
▁filósofo	-10.635
▁indonésia	-10.635
▁laboratório	-10.635
▁magalhães	-10.635
▁reconhecida	-10.635
▁teixeira	-10.635
▁extensão	-10.635
▁estudioso	-10.635
▁introdução	-10.635
▁mestrado	-10.635
▁recruta	-10.635
▁estatuto	-10.635
ecido	-10.635
▁mantido	-10.635
▁arquiteto	-10.6351
▁antecedentes	-10.6351
▁roman	-10.6351
▁forneci	-10.6351
▁embaixador	-10.6352
▁egito	-10.6354
▁1927	-10.6355
▁jeff	-10.6356
▁substituindo	-10.6356
▁vinhais	-10.6356
▁face	-10.6357
▁estabelece	-10.6358
▁bolsa	-10.6358
▁verdadeira	-10.6364
▁comumente	-10.6368
exclu	-10.637
▁steven	-10.6371
▁duração	-10.6372
▁1922	-10.6375
▁grove	-10.6378
ika	-10.638
▁envolvendo	-10.6384
▁encontrava	-10.6385
aln	-10.6386
▁allen	-10.6395
▁team	-10.6402
▁cobra	-10.6403
▁mix	-10.6413
fran	-10.6419
▁alma	-10.6421
▁derrotar	-10.6421
▁célula	-10.6426
▁coisa	-10.6427
▁colegas	-10.6428
▁passe	-10.6431
▁beth	-10.6431
▁54	-10.6432
▁vivia	-10.6433
cerca	-10.6457
este	-10.6462
▁vento	-10.6463
▁focas	-10.6465
▁nele	-10.6478
▁clandestina	-10.648
▁dojo	-10.6486
▁válidos	-10.6487
linha	-10.649
tadas	-10.649
▁garantir	-10.6495
▁barba	-10.6508
▁caiu	-10.6517
▁seção	-10.652
terra	-10.6523
▁corresponde	-10.6524
▁comunica	-10.6526
phi	-10.6528
ílio	-10.6535
ógrafo	-10.6539
▁cadáver	-10.6539
▁custódia	-10.6539
▁guitarrista	-10.6539
▁hubble	-10.6539
▁jewitt	-10.6539
▁necessária	-10.6539
▁presunto	-10.6539
▁raimundo	-10.6539
▁sindicato	-10.6539
▁transmitido	-10.6539
▁índice	-10.6539
construiu	-10.6539
▁conexão	-10.6539
▁incidente	-10.6539
▁terrestre	-10.6539
▁caráter	-10.6539
▁desastre	-10.6539
▁sequestro	-10.6539
▁trecho	-10.6539
▁atingido	-10.6539
▁síria	-10.6539
▁matriz	-10.6539
▁ensina	-10.654
latham	-10.6542
▁alternativa	-10.6543
▁compila	-10.6547
▁trinta	-10.6547
▁desejo	-10.6548
▁baía	-10.6552
▁ponta	-10.6554
just	-10.6554
▁próximos	-10.6557
▁mistas	-10.6564
▁moto	-10.6567
tex	-10.6571
▁(17	-10.6572
▁gale	-10.6574
parecido	-10.6575
▁publicados	-10.6579
▁wil	-10.6584
lice	-10.6585
▁indo	-10.6594
▁tese	-10.6598
▁agra	-10.6601
▁instru	-10.6602
ref	-10.6604
▁melo	-10.6608
▁paula	-10.6619
▁aluno	-10.6624
ório	-10.6625
▁associada	-10.6627
▁rouba	-10.6637
▁gente	-10.6645
▁pic	-10.6645
▁abrir	-10.6647
live	-10.6648
▁conquistar	-10.6665
▁gravar	-10.6667
▁homo	-10.6671
▁ign	-10.6677
▁responde	-10.6686
▁policia	-10.669
hard	-10.6696
▁aprende	-10.6697
dez	-10.67
▁posterior	-10.6706
▁web	-10.6711
já	-10.6715
▁helen	-10.6725
▁segura	-10.6731
▁coletânea	-10.6731
▁curitiba	-10.6731
▁estabelecida	-10.6731
▁inscrição	-10.6731
▁portalegre	-10.6731
▁responsáveis	-10.6731
▁trujillo	-10.6731
▁cobertura	-10.6731
▁máxima	-10.6731
bretanha	-10.6731
▁oferecido	-10.6731
▁corporation	-10.6731
▁coelho	-10.6731
▁pacote	-10.6731
▁plutino	-10.6731
▁major	-10.6731
▁origens	-10.6731
▁australiano	-10.6732
▁modular	-10.6732
▁queijo	-10.6732
▁lesões	-10.6732
▁vantage	-10.6733
▁pede	-10.6735
▁1954	-10.6735
town	-10.6737
▁existentes	-10.6739
▁north	-10.674
▁templos	-10.6744
brook	-10.6746
nomina	-10.6748
phone	-10.6751
▁voa	-10.6754
edón	-10.6756
▁karl	-10.6757
▁piano	-10.676
▁colômbia	-10.6763
ange	-10.6764
▁salão	-10.6768
▁usadas	-10.6776
▁formal	-10.6778
▁cair	-10.6779
▁abriga	-10.6779
▁introduzido	-10.6787
▁notícias	-10.6787
▁deuses	-10.6789
▁públicas	-10.6792
▁falar	-10.6795
▁mad	-10.6817
▁envolvido	-10.6821
▁cela	-10.683
centro	-10.6831
▁colocada	-10.6863
▁estatísticas	-10.6874
▁relaciona	-10.6886
▁rota	-10.6888
anna	-10.6889
▁queima	-10.6899
▁representado	-10.6912
▁steve	-10.6917
▁henri	-10.6923
▁julga	-10.6924
▁conceição	-10.6927
▁consecutivo	-10.6927
▁firjan	-10.6927
▁guimarães	-10.6927
▁júlio	-10.6927
▁patrimônio	-10.6927
▁relógio	-10.6927
▁rápida	-10.6927
▁árbitro	-10.6927
▁college	-10.6927
▁costuma	-10.6927
▁inovação	-10.6927
▁playoffs	-10.6927
▁rejeita	-10.6927
▁positivo	-10.6927
▁quinze	-10.6927
▁pablo	-10.6927
▁cadeia	-10.6927
▁diego	-10.6927
▁conhecidas	-10.6927
▁rodrig	-10.6928
▁pilota	-10.6928
▁olímpicos	-10.6928
▁esperanto	-10.6929
▁manifestantes	-10.6929
▁eletro	-10.6929
▁critico	-10.693
▁duarte	-10.693
▁vendida	-10.693
▁recolh	-10.6931
▁questiona	-10.6932
▁1949	-10.6933
▁1925	-10.6933
▁capítulos	-10.6933
org	-10.6935
▁especificação	-10.6936
▁honor	-10.6937
▁sonho	-10.6938
▁orient	-10.6941
▁uber	-10.6942
▁exata	-10.6946
▁wwe	-10.6948
▁tomada	-10.6952
marca	-10.6957
▁placas	-10.6959
▁crista	-10.6964
▁med	-10.6965
▁dra	-10.6967
▁contribuiu	-10.6972
▁helena	-10.6986
▁rapper	-10.6989
▁disc	-10.6989
▁dificuldades	-10.699
▁foz	-10.7005
rosa	-10.7011
▁cemdp	-10.7018
2015	-10.702
▁relato	-10.7022
▁irmãs	-10.7022
▁proteína	-10.7027
▁afirmando	-10.7027
neu	-10.7028
more	-10.7029
▁wal	-10.7032
iko	-10.7036
méd	-10.7049
into	-10.7052
▁sino	-10.7057
▁patr	-10.7063
▁depoimentos	-10.7073
▁(11	-10.7078
▁vii	-10.7079
▁destes	-10.7083
▁integrar	-10.7087
▁cata	-10.7094
▁resolve	-10.7094
bell	-10.7097
▁treina	-10.7098
▁bank	-10.7099
▁usam	-10.7104
▁sobreviventes	-10.7107
▁administrador	-10.7108
▁regula	-10.7111
▁voar	-10.7113
ulação	-10.7117
▁acontecimento	-10.7127
▁cidadania	-10.7127
▁cirurgia	-10.7127
▁corinthians	-10.7127
▁mundiais	-10.7127
▁pernambuco	-10.7127
▁químico	-10.7127
▁trouxe	-10.7127
▁bennett	-10.7127
▁felipe	-10.7127
▁definido	-10.7127
▁jordan	-10.7127
▁suporte	-10.7127
▁exceção	-10.7127
▁unesco	-10.7127
▁feliz	-10.7127
▁esfera	-10.7127
▁privada	-10.7127
▁destinado	-10.7128
▁avô	-10.7128
▁ausência	-10.7128
▁paraíba	-10.7128
▁bosco	-10.7129
▁espectadores	-10.7129
▁tênis	-10.7129
▁lutero	-10.713
▁manifestações	-10.7131
▁1937	-10.7131
▁encomenda	-10.7132
▁inúmeras	-10.7132
▁1923	-10.7132
▁1928	-10.7133
▁lidar	-10.7135
métrica	-10.7137
▁exibi	-10.7138
▁publicações	-10.7139
▁posteriores	-10.714
▁substantivos	-10.7141
▁identificar	-10.7142
▁tubo	-10.7144
▁apresentações	-10.7148
▁avali	-10.7148
▁fatores	-10.7153
▁ocupação	-10.7161
▁marina	-10.717
grafia	-10.717
ótico	-10.7184
▁sets	-10.7187
▁shido	-10.7189
▁martins	-10.7191
perou	-10.7198
▁margo	-10.7207
▁raio	-10.7208
antoinette	-10.721
wood	-10.721
manuel	-10.721
show	-10.7212
▁pintor	-10.7231
▁wall	-10.7232
▁assumindo	-10.7237
▁mill	-10.7239
▁esportes	-10.724
pio	-10.7242
▁dun	-10.7243
▁medidas	-10.7253
▁aparecem	-10.7258
cross	-10.7263
▁pá	-10.7273
▁negoci	-10.7284
▁controlar	-10.7285
▁saí	-10.7287
campeão	-10.7292
▁representantes	-10.73
▁soma	-10.7308
▁implant	-10.733
▁canadense	-10.7331
▁escócia	-10.7331
▁manutenção	-10.7331
▁opinião	-10.7331
▁roteirista	-10.7331
▁sassânida	-10.7331
▁êxito	-10.7331
sucedida	-10.7331
▁cavalaria	-10.7331
▁facilmente	-10.7331
▁roraima	-10.7331
▁street	-10.7331
▁suposto	-10.7331
▁assessor	-10.7331
▁notáveis	-10.7331
▁originais	-10.7332
▁conecta	-10.7332
▁ísis	-10.7332
▁coreia	-10.7332
▁segmento	-10.7332
▁cauno	-10.7332
▁revolucionário	-10.7332
▁gráfico	-10.7332
▁escavações	-10.7332
▁céu	-10.7332
▁celso	-10.7333
▁atração	-10.7334
▁1951	-10.7335
▁referências	-10.7336
▁exílio	-10.7336
medi	-10.7337
▁músicos	-10.7338
▁instalação	-10.7338
▁island	-10.7339
▁good	-10.734
▁perseguição	-10.734
▁estimativa	-10.7343
▁substituída	-10.7347
▁xiii	-10.7349
▁divulgada	-10.735
▁preparação	-10.7351
▁exploração	-10.7352
▁filhotes	-10.7355
▁elite	-10.7359
▁janela	-10.7359
▁chapa	-10.7361
▁rick	-10.7364
▁led	-10.7364
cip	-10.7364
▁like	-10.7367
▁vera	-10.7372
▁leiria	-10.7378
lação	-10.7379
▁requer	-10.7382
▁ry	-10.7382
▁envolveu	-10.7383
▁[...]	-10.7383
lógica	-10.7387
▁representando	-10.74
▁ue	-10.7408
▁160	-10.7411
▁recupera	-10.7413
▁400	-10.7416
▁registrado	-10.7424
club	-10.7425
▁propriedades	-10.744
▁significado	-10.7443
▁levaram	-10.7464
▁detido	-10.7469
▁campinas	-10.747
out	-10.7471
▁relatado	-10.7474
▁coleta	-10.7481
▁volumes	-10.7492
▁acontecer	-10.7504
esso	-10.7518
▁produtora	-10.7525
izando	-10.7528
▁legenda	-10.7537
▁perus	-10.7537
▁olímpi	-10.7538
▁cedo	-10.7539
▁dito	-10.7539
▁aproveit	-10.7539
▁atravessa	-10.7539
▁cilindro	-10.7539
▁cláudio	-10.7539
▁divindade	-10.7539
▁inédita	-10.7539
▁menéndez	-10.7539
▁metímna	-10.7539
▁religião	-10.7539
▁tancredo	-10.7539
▁zagueiro	-10.7539
▁básico	-10.7539
▁chinês	-10.7539
▁primavera	-10.7539
▁little	-10.7539
▁alexandria	-10.754
▁isabel	-10.754
▁ritmo	-10.754
▁aparência	-10.754
▁presidi	-10.754
▁calcula	-10.7541
▁votação	-10.7543
▁anexa	-10.7543
▁orientação	-10.7543
raw	-10.7543
▁actua	-10.7544
▁edgar	-10.7544
▁suporta	-10.7545
▁apoiar	-10.7546
▁organismos	-10.7548
turn	-10.7548
flor	-10.7549
▁técnicas	-10.7554
▁largo	-10.7555
▁paredes	-10.7555
work	-10.7556
▁tony	-10.7557
▁xviii	-10.7562
ália	-10.7562
5)	-10.7567
▁florianópolis	-10.7569
▁marcelo	-10.7571
▁rein	-10.7571
▁atuais	-10.7582
▁designado	-10.7582
▁hiper	-10.7583
▁leões	-10.7586
▁fortemente	-10.759
▁graduação	-10.7601
▁may	-10.7602
▁taka	-10.7604
baixo	-10.7607
▁eleitor	-10.7611
▁front	-10.7616
▁pesada	-10.7627
▁notas	-10.7634
▁colocar	-10.7636
▁urban	-10.7642
▁atuava	-10.7646
▁jogando	-10.7649
boy	-10.7649
▁professores	-10.7652
▁chaves	-10.7654
▁recuperar	-10.7657
▁conti	-10.766
▁ligados	-10.7667
igo	-10.7667
▁tran	-10.7669
oeste	-10.7672
▁levanta	-10.7679
▁colega	-10.7682
▁assistência	-10.7684
▁fab	-10.7686
▁pioneiros	-10.7686
▁prato	-10.7687
▁salva	-10.7701
▁esconde	-10.7702
▁onu	-10.7702
▁interno	-10.7709
iger	-10.7719
born	-10.7731
▁contar	-10.7741
▁dedica	-10.7752
▁adversário	-10.7752
▁bélgica	-10.7752
▁clínica	-10.7752
▁quartel	-10.7752
▁triângulo	-10.7752
▁vôlei	-10.7752
▁ciclista	-10.7752
▁posicion	-10.7752
▁tendência	-10.7752
▁cooperativa	-10.7752
▁precisão	-10.7752
▁rebelião	-10.7752
▁maggie	-10.7752
▁previsto	-10.7752
▁causou	-10.7752
▁filipe	-10.7752
▁ceará	-10.7752
▁anistia	-10.7752
▁apelido	-10.7752
kk	-10.7753
▁dramática	-10.7753
▁mitologia	-10.7753
▁austin	-10.7753
▁andrade	-10.7753
▁operacional	-10.7753
▁united	-10.7753
▁teólogo	-10.7755
▁regulamento	-10.7756
▁chamar	-10.7757
▁administrativa	-10.7757
▁1955	-10.7758
▁1956	-10.7758
▁1924	-10.7758
▁futura	-10.7758
▁administrativo	-10.7759
▁ivan	-10.7762
▁prix	-10.7771
▁proteção	-10.7772
▁cór	-10.7772
asso	-10.7773
▁compreende	-10.7779
heim	-10.7782
▁88	-10.779
▁protest	-10.7791
▁inúmer	-10.7794
▁inspirado	-10.7798
▁salvar	-10.7809
ño	-10.7813
▁hans	-10.7821
▁tração	-10.7823
▁uns	-10.7824
graça	-10.7829
▁instalado	-10.7832
▁doenças	-10.7837
ibilidade	-10.7852
▁resta	-10.7859
final	-10.7861
▁nico	-10.7865
zy	-10.7868
ódio	-10.7868
0)	-10.7868
▁envolvidos	-10.7869
arrow	-10.7879
feito	-10.7881
▁camar	-10.7881
▁ocorrem	-10.7881
▁sue	-10.789
▁saga	-10.7901
zio	-10.7908
▁ordena	-10.7913
▁regras	-10.7926
”"	-10.7928
▁ye	-10.7942
reza	-10.7943
▁alice	-10.7962
▁bloque	-10.797
levavasseur	-10.797
▁calendário	-10.797
▁destruída	-10.797
▁elizabeth	-10.797
▁excelente	-10.797
▁exercício	-10.797
▁figueiredo	-10.797
▁moscovo	-10.797
▁noruega	-10.797
▁nuclear	-10.797
▁provisória	-10.797
▁baviera	-10.797
▁escolheu	-10.797
▁gilberto	-10.797
▁argumento	-10.797
▁expulso	-10.797
▁álvar	-10.797
▁obtida	-10.797
▁moscou	-10.797
▁obtido	-10.797
▁primária	-10.797
▁acampamento	-10.797
▁intensa	-10.797
▁reúne	-10.797
▁kahn	-10.797
▁assalto	-10.797
▁intervalo	-10.797
▁frota	-10.797
▁fiscal	-10.797
▁mantendo	-10.797
▁zelândia	-10.797
▁traseira	-10.797
▁operária	-10.7971
▁jogabilidade	-10.7972
▁wolf	-10.7972
▁sozinho	-10.7972
▁sagrado	-10.7973
▁harmon	-10.7973
▁comprova	-10.7973
▁inaugurado	-10.7974
▁1907	-10.7974
▁conversa	-10.7975
▁negativa	-10.7976
▁comunicações	-10.7976
▁moreira	-10.7979
▁sarah	-10.7982
▁orbitais	-10.799
▁fuga	-10.8002
▁sau	-10.8006
▁mário	-10.8008
▁respondeu	-10.8008
▁blériot	-10.8009
lícia	-10.8014
estado	-10.8018
▁votou	-10.8022
grande	-10.8022
▁incapaz	-10.8031
▁enviados	-10.8034
▁jim	-10.8036
▁limitada	-10.8037
▁sons	-10.8042
▁adiciona	-10.8047
▁fecha	-10.805
▁estou	-10.8057
ovich	-10.8062
▁sabia	-10.8065
mediante	-10.8065
▁ida	-10.8072
melhor	-10.8072
▁sand	-10.8073
▁emociona	-10.8073
▁prima	-10.8082
nascido	-10.8091
▁consisti	-10.8103
▁capit	-10.8115
▁uk	-10.8115
▁entregues	-10.8117
▁existia	-10.8126
▁inspir	-10.8129
tável	-10.8143
▁plan	-10.8148
rust	-10.8148
cotil	-10.8159
▁pele	-10.8161
▁pega	-10.8167
▁vivem	-10.8168
▁diferenças	-10.8172
▁associa	-10.8173
▁prega	-10.8177
▁árvores	-10.818
light	-10.8182
2,5	-10.8183
▁financi	-10.819
▁centauro	-10.8192
▁corrupção	-10.8192
▁determinação	-10.8192
▁específica	-10.8192
▁estabelecimento	-10.8192
▁fonseca	-10.8192
▁giovanni	-10.8192
▁infraestrutura	-10.8192
▁japoneses	-10.8192
▁misericórdia	-10.8192
▁planície	-10.8192
▁sorocaba	-10.8192
▁chicago	-10.8192
▁concedido	-10.8192
▁distinta	-10.8192
▁instaura	-10.8192
▁pertencia	-10.8192
▁reeleito	-10.8192
▁cineasta	-10.8192
▁marduque	-10.8192
▁isaac	-10.8192
▁extinto	-10.8192
▁discuti	-10.8192
▁microsoft	-10.8192
▁rendeu	-10.8192
▁armee	-10.8192
▁ensaio	-10.8192
▁disparo	-10.8192
▁two	-10.8192
▁noroeste	-10.8192
▁seguro	-10.8193
▁definir	-10.8193
▁berlim	-10.8193
▁avaliações	-10.8193
▁terai	-10.8195
▁turismo	-10.8197
▁gerente	-10.8199
▁fusão	-10.82
▁mineira	-10.8203
▁observações	-10.8204
▁fabricação	-10.8205
ênio	-10.8207
▁participações	-10.8208
▁quan	-10.8209
▁presta	-10.8212
▁concertos	-10.8213
lusão	-10.8216
▁atestado	-10.8218
▁grava	-10.8221
fort	-10.8234
▁vinha	-10.8237
▁iniciado	-10.8241
▁barroso	-10.8245
▁indiana	-10.8256
▁liderada	-10.8264
▁record	-10.8267
▁admiti	-10.8268
▁angela	-10.8268
▁sente	-10.8272
500	-10.8274
▁esqui	-10.8278
▁servido	-10.828
–19	-10.8291
▁cooper	-10.83
▁interpretado	-10.8302
▁mental	-10.8311
shu	-10.8312
▁christ	-10.8326
▁law	-10.8329
ful	-10.8329
brand	-10.8333
▁nomeou	-10.8339
▁dificuldade	-10.8346
onde	-10.8349
tron	-10.8352
91)	-10.8371
▁juntar	-10.8373
▁sint	-10.8377
▁entender	-10.8385
▁relator	-10.8387
▁buscar	-10.8394
▁parlamentar	-10.8406
▁combater	-10.8412
▁medidor	-10.8415
quando	-10.8415
secret	-10.8416
lândia	-10.8418
▁aposentado	-10.8419
▁argumenta	-10.8419
▁bilheteria	-10.8419
▁círculo	-10.8419
▁democrática	-10.8419
▁elétrica	-10.8419
▁estêvão	-10.8419
▁explosão	-10.8419
▁flórida	-10.8419
▁holiday	-10.8419
▁hélio	-10.8419
▁jurídico	-10.8419
▁lâmina	-10.8419
▁mecânica	-10.8419
▁orleans	-10.8419
▁pandemia	-10.8419
▁regionais	-10.8419
▁suspeita	-10.8419
▁incluía	-10.8419
▁suplente	-10.8419
▁suíço	-10.8419
▁aspieta	-10.8419
▁jazz	-10.8419
▁vontade	-10.8419
▁tributo	-10.8419
ômica	-10.8419
▁inteira	-10.8419
▁constituída	-10.8419
▁dream	-10.8419
▁queiroz	-10.8419
▁naturais	-10.8419
▁profundo	-10.842
://	-10.842
▁comparação	-10.842
vira	-10.842
roma	-10.842
▁dezenas	-10.842
▁garoto	-10.842
▁escolher	-10.842
▁financiamento	-10.8421
▁warner	-10.8421
▁stephenson	-10.8422
▁ficção	-10.8423
molipo	-10.8423
▁onze	-10.8425
▁tido	-10.8425
▁fuji	-10.8425
▁islã	-10.8425
▁amiga	-10.8425
▁johnny	-10.8426
▁interações	-10.843
▁glenn	-10.843
▁funcionamento	-10.8431
▁but	-10.8431
▁mauric	-10.8431
▁ambiental	-10.8432
▁haiti	-10.8433
▁perseguido	-10.8436
▁renome	-10.8437
wald	-10.8438
▁alfredo	-10.8441
▁amadores	-10.8442
▁trabalhado	-10.8446
nin	-10.8448
▁rp	-10.845
▁assuntos	-10.845
▁solicita	-10.8451
▁pires	-10.8452
▁aprender	-10.846
▁lucy	-10.8462
▁vence	-10.8462
clar	-10.8473
▁africana	-10.8474
▁reuniu	-10.8482
kov	-10.8484
▁chico	-10.8486
▁confirmada	-10.8487
▁continuaram	-10.8488
▁modifica	-10.8494
▁ocorrer	-10.8495
="	-10.8497
▁auxiliar	-10.8497
ugu	-10.8497
▁utilizar	-10.8509
▁cry	-10.8517
▁enviada	-10.8521
▁joe	-10.8521
▁pago	-10.8535
▁cover	-10.8535
▁neuro	-10.8541
play	-10.8541
▁santana	-10.8542
gão	-10.8551
▁comandou	-10.8566
▁professora	-10.8567
▁notícia	-10.8584
▁inimigo	-10.8584
▁nela	-10.859
▁aquele	-10.859
lógico	-10.8598
night	-10.8599
▁gripe	-10.8616
▁pernas	-10.8619
▁persegui	-10.8624
▁terminar	-10.8626
▁especifica	-10.8629
▁descendentes	-10.8632
▁atribui	-10.8633
▁computador	-10.8639
▁walt	-10.8649
▁histori	-10.8651
▁acrescenta	-10.8652
▁equivalente	-10.8652
▁aparelho	-10.8652
▁bacmeister	-10.8652
▁composições	-10.8652
▁compromisso	-10.8652
▁contemporânea	-10.8652
▁creditado	-10.8652
▁cretáceo	-10.8652
▁câncer	-10.8652
▁espetáculo	-10.8652
▁facebook	-10.8652
▁fluminense	-10.8652
▁iglesias	-10.8652
▁indigente	-10.8652
▁marilyn	-10.8652
▁ninguém	-10.8652
▁orçamento	-10.8652
▁playstation	-10.8652
▁proeminente	-10.8652
▁soviético	-10.8652
▁sudoeste	-10.8652
▁supostamente	-10.8652
▁turquia	-10.8652
▁leonard	-10.8652
▁viaduto	-10.8652
▁beleza	-10.8652
▁enrique	-10.8652
▁marciais	-10.8652
▁abrange	-10.8652
▁atribuída	-10.8652
▁story	-10.8652
▁edward	-10.8652
▁remix	-10.8652
ópolis	-10.8653
▁adulta	-10.8653
▁(2001	-10.8653
▁fluido	-10.8654
▁constituído	-10.8654
▁1932	-10.8656
▁nunes	-10.8658
▁poderoso	-10.8661
itch	-10.8668
▁abc	-10.867
▁caminha	-10.867
▁estágio	-10.867
▁morreram	-10.8672
▁borba	-10.8672
ésio	-10.8674
▁hugo	-10.8678
▁unidas	-10.8679
propria	-10.8682
▁relatou	-10.8691
▁mesa	-10.8695
▁fundadores	-10.8697
▁abandonado	-10.8699
▁simula	-10.8709
▁fechado	-10.8718
▁limitado	-10.8722
▁renda	-10.8724
▁convid	-10.8726
rené	-10.8731
mode	-10.8744
▁referente	-10.8745
▁aplicada	-10.8746
▁duplo	-10.8746
▁apresentando	-10.8752
pcb	-10.877
gá	-10.8774
quilo	-10.8782
only	-10.8789
versão	-10.8801
▁ocupado	-10.8808
mid	-10.8811
ifa	-10.8813
▁69	-10.8816
▁175	-10.8817
▁externa	-10.8828
▁considerar	-10.8831
▁vencedora	-10.884
▁nega	-10.884
▁ligado	-10.8842
▁old	-10.8844
▁comentários	-10.8848
▁naval	-10.8856
this	-10.8871
▁marcada	-10.8873
▁pontua	-10.8879
raz	-10.8885
▁stephen	-10.8887
▁administra	-10.8889
▁http	-10.889
▁crânio	-10.889
▁câmera	-10.889
▁desempenha	-10.889
▁destruído	-10.889
▁festivais	-10.889
▁flávio	-10.889
▁fátima	-10.889
▁manifesto	-10.889
▁memorial	-10.889
▁transmitida	-10.889
▁influente	-10.889
▁lindland	-10.889
▁possíveis	-10.889
▁mcgee	-10.889
▁obtendo	-10.889
▁chinesa	-10.889
▁produções	-10.889
▁ópera	-10.889
▁literário	-10.889
▁razões	-10.889
▁ruínas	-10.889
▁convite	-10.889
▁havaí	-10.889
▁rapaz	-10.889
▁competir	-10.889
▁nevada	-10.889
▁afiliada	-10.889
▁claris	-10.889
▁roxas	-10.889
▁surpreende	-10.889
stadt	-10.889
▁exilado	-10.889
▁republicano	-10.889
▁distante	-10.8891
▁monges	-10.8891
▁preciso	-10.8891
▁junior	-10.8891
▁xbox	-10.8891
▁congregação	-10.8891
▁vegeta	-10.8892
▁cooperação	-10.8893
▁boston	-10.8894
▁abreu	-10.8894
▁escultura	-10.8895
▁sessão	-10.8897
▁relacionadas	-10.8898
▁viena	-10.89
▁garcia	-10.8901
2014	-10.8901
▁elevada	-10.8901
▁ofício	-10.8902
▁destacamento	-10.8902
▁contest	-10.8905
▁robin	-10.8906
bach	-10.8906
▁roger	-10.8908
▁apurados	-10.8909
▁levache	-10.891
▁homenageado	-10.8911
▁metacritic	-10.8912
▁trazer	-10.8912
▁sofrer	-10.8914
▁parti	-10.8919
▁soube	-10.8922
ídio	-10.8924
água	-10.8931
–15	-10.8936
osasco	-10.894
mandou	-10.8946
feld	-10.8948
▁zh	-10.895
▁pau	-10.8959
oides	-10.896
▁trav	-10.8966
▁aparecer	-10.8971
▁compositores	-10.8972
▁elemento	-10.8973
▁superiores	-10.898
▁aplicado	-10.8981
▁proximidades	-10.8984
▁120	-10.8991
▁constitu	-10.8993
▁educa	-10.8996
▁live	-10.9
▁ouvir	-10.9004
gene	-10.9012
à	-10.9013
guarda	-10.9013
prefeito	-10.9014
sub	-10.9018
ensis	-10.9021
▁classificam	-10.9025
mental	-10.9032
sua	-10.9034
▁adultos	-10.9052
studi	-10.9074
▁georg	-10.9081
▁pouca	-10.9084
▁deixado	-10.9095
▁interessa	-10.911
▁investigado	-10.9111
▁morre	-10.9125
/2008	-10.9134
/2011	-10.9134
▁adquirido	-10.9134
▁ascensão	-10.9134
▁escolhida	-10.9134
▁exposições	-10.9134
▁fósseis	-10.9134
▁helicóptero	-10.9134
▁hipótese	-10.9134
▁liverpool	-10.9134
▁líquido	-10.9134
▁periódico	-10.9134
▁pontifíci	-10.9134
▁proclama	-10.9134
▁reeleição	-10.9134
▁romântica	-10.9134
▁semelhança	-10.9134
▁sujeito	-10.9134
▁testemunho	-10.9134
▁arqueológico	-10.9134
▁aprendiz	-10.9134
▁lytle	-10.9134
▁cordeiro	-10.9134
▁convento	-10.9134
▁arrecad	-10.9134
▁bloqueios	-10.9134
▁morrido	-10.9134
▁articula	-10.9134
▁album	-10.9134
fashion	-10.9134
▁solução	-10.9134
▁inauguração	-10.9135
▁fraca	-10.9135
▁group	-10.9135
▁tomás	-10.9137
▁crença	-10.9137
▁divulgação	-10.9138
▁regimento	-10.9138
▁itens	-10.9138
▁ryan	-10.9138
▁renovo	-10.914
▁1929	-10.9141
▁inteiro	-10.9149
unt	-10.9149
▁separada	-10.915
▁surgir	-10.915
▁jurista	-10.915
▁canais	-10.9151
▁duke	-10.916
▁bernardo	-10.9164
▁pretende	-10.9165
▁desapareceu	-10.9165
▁apresentador	-10.917
▁guia	-10.9174
▁vicente	-10.9181
▁tren	-10.9182
fili	-10.9187
▁cantar	-10.9189
▁xii	-10.9189
▁irã	-10.9196
▁treinar	-10.9198
zan	-10.92
▁kim	-10.9215
▁subi	-10.9224
grado	-10.9225
liga	-10.9227
▁nomeação	-10.9229
▁prende	-10.9233
stone	-10.9233
▁vpr	-10.9238
69)	-10.9244
▁arist	-10.9252
▁trio	-10.9253
ficaram	-10.9256
▁reformada	-10.926
young	-10.9266
▁trail	-10.9266
▁morar	-10.9276
super	-10.9277
▁0.0	-10.9278
▁bill	-10.9281
preci	-10.9288
▁bento	-10.929
▁adrian	-10.9306
▁dizia	-10.9308
▁pesa	-10.9321
▁usuário	-10.9335
▁barco	-10.9342
vencendo	-10.9343
71)	-10.9354
▁soci	-10.9364
▁prof	-10.9367
▁levada	-10.9368
▁river	-10.937
▁igual	-10.9371
▁reed	-10.938
download	-10.9384
petróleo	-10.9384
▁artilheiro	-10.9384
▁catmandu	-10.9384
▁chestnut	-10.9384
▁clandestinidade	-10.9384
▁classificou	-10.9384
▁desigualdade	-10.9384
▁espanhóis	-10.9384
▁fácil	-10.9384
▁henderson	-10.9384
▁partículas	-10.9384
▁proveniente	-10.9384
▁reconstrução	-10.9384
▁resolução	-10.9384
▁trânsito	-10.9384
▁violenta	-10.9384
▁adquirir	-10.9384
▁lúcia	-10.9384
▁network	-10.9384
▁ultrapassa	-10.9384
▁falecimento	-10.9384
▁lendário	-10.9384
▁siemens	-10.9384
▁codinome	-10.9384
▁definida	-10.9384
▁gradualmente	-10.9384
▁veneza	-10.9384
▁andrew	-10.9384
▁sterling	-10.9384
▁dedicou	-10.9384
▁holanda	-10.9384
▁transição	-10.9384
▁director	-10.9384
▁receita	-10.9384
▁assume	-10.9384
▁philip	-10.9384
▁quentin	-10.9385
▁atrações	-10.9385
▁assento	-10.9386
▁silveira	-10.9386
▁comprou	-10.9386
▁continha	-10.9386
▁amaral	-10.9387
▁selva	-10.9387
▁paralela	-10.9388
▁jackson	-10.939
▁existir	-10.9394
▁citad	-10.9401
▁baby	-10.9401
▁convidada	-10.9401
▁experimentos	-10.9403
▁cabelo	-10.9404
▁eugen	-10.9412
-5	-10.9412
▁roubo	-10.9414
▁partiu	-10.942
voleibolista	-10.9421
▁procurado	-10.9421
▁sila	-10.9425
▁hard	-10.9425
▁0,2	-10.9426
ítica	-10.9426
▁road	-10.943
▁key	-10.9433
vy	-10.9435
▁qualificação	-10.9437
ival	-10.9437
▁magia	-10.9448
▁eleger	-10.9454
▁gang	-10.9454
▁cantores	-10.9461
zinho	-10.9462
formalmente	-10.9467
▁more	-10.9481
▁progresso	-10.9487
▁esteja	-10.9488
▁libertado	-10.9489
▁bate	-10.9498
▁mah	-10.9498
grad	-10.9504
▁avançar	-10.9513
baixa	-10.9525
▁cox	-10.9542
fone	-10.9552
▁webb	-10.9553
▁tenham	-10.9559
▁arca	-10.9561
timo	-10.9578
▁sobreviver	-10.9585
▁marcel	-10.9587
▁integrado	-10.9587
▁gib	-10.9591
▁borda	-10.9602
shō	-10.9603
▁equipamento	-10.9608
▁totaliza	-10.9623
▁usp	-10.9628
caminh	-10.9632
kyōgoku	-10.964
▁amistoso	-10.964
▁basílica	-10.964
▁contempl	-10.964
▁contemporâneo	-10.964
▁cérebro	-10.964
▁distingui	-10.964
▁fantasia	-10.964
▁feitiço	-10.964
▁fleury	-10.964
▁guerreiro	-10.964
▁kickboxing	-10.964
▁leipzig	-10.964
▁obrigatória	-10.964
▁padrões	-10.964
▁sacerdote	-10.964
▁simultaneamente	-10.964
▁twitter	-10.964
▁veterano	-10.964
▁bedford	-10.964
▁florença	-10.964
▁maurício	-10.964
▁monomotor	-10.964
▁premiação	-10.964
▁regressa	-10.964
▁cachorro	-10.964
▁mccoy	-10.964
▁informou	-10.964
▁sufixo	-10.964
▁vencido	-10.964
▁ligeira	-10.964
korps	-10.964
▁mensagem	-10.964
▁evidente	-10.964
▁anexo	-10.9641
▁falecido	-10.9641
▁alimentos	-10.9641
▁embaixada	-10.9641
▁manaus	-10.9641
▁secreto	-10.9642
▁secreta	-10.9643
▁atenas	-10.9643
▁sorteio	-10.9643
▁escav	-10.9644
▁perfil	-10.9644
▁(385	-10.9644
▁julgamento	-10.9645
▁implica	-10.9645
▁firma	-10.9646
▁abade	-10.9647
▁adicionais	-10.965
▁visitantes	-10.965
▁coletiva	-10.9651
▁sound	-10.9651
▁identifica	-10.9651
▁seguidores	-10.9652
▁raiz	-10.9655
▁morane	-10.9659
▁interpretação	-10.9662
▁separação	-10.9671
▁atuações	-10.968
▁vozes	-10.9682
▁permanecer	-10.9683
▁hong	-10.9687
▁demanda	-10.9688
▁roy	-10.9707
ferindo	-10.9713
▁interpretar	-10.9719
▁perde	-10.9726
new	-10.9726
▁ampl	-10.9738
▁identificada	-10.9741
▁reivindica	-10.9744
▁incluir	-10.9751
▁fechada	-10.9754
usp	-10.9756
▁america	-10.9763
6)	-10.9775
▁east	-10.9775
cemdp	-10.9782
—	-10.9783
irmão	-10.9783
▁kong	-10.9794
chefe	-10.9812
guerra	-10.9817
mitiu	-10.9819
▁your	-10.982
▁escreve	-10.9827
▁placa	-10.9846
▁arno	-10.9848
▁indian	-10.9853
▁francis	-10.9858
nik	-10.9864
class	-10.9865
▁assunto	-10.9867
▁apresentava	-10.9875
▁desaparece	-10.9876
▁nomeada	-10.9878
mission	-10.988
▁apoiado	-10.9895
▁comprar	-10.9897
▁cie	-10.99
babilónico	-10.9903
scendência	-10.9903
▁acompanhou	-10.9903
▁antecessor	-10.9903
▁aparições	-10.9903
▁barcelona	-10.9903
▁básica	-10.9903
▁confederação	-10.9903
▁cristiano	-10.9903
▁decorrência	-10.9903
▁dinâmica	-10.9903
▁emboscada	-10.9903
▁estrangeira	-10.9903
▁fábio	-10.9903
▁iraquiano	-10.9903
▁irmandade	-10.9903
▁judicial	-10.9903
▁necroscópico	-10.9903
▁schneider	-10.9903
▁utilizou	-10.9903
▁amizade	-10.9903
▁comerciante	-10.9903
▁cosroes	-10.9903
▁costume	-10.9903
▁dinamarca	-10.9903
▁referida	-10.9903
▁sabonis	-10.9903
▁doutrina	-10.9903
▁arnaldo	-10.9903
▁morfema	-10.9903
▁radical	-10.9903
▁dossiê	-10.9903
▁café	-10.9903
▁ativista	-10.9903
▁redução	-10.9903
▁treze	-10.9904
▁sessões	-10.9904
▁constitucional	-10.9904
▁carolina	-10.9905
▁paleo	-10.9905
▁negociações	-10.9905
▁mgm	-10.9905
▁orientais	-10.9905
▁melodia	-10.9906
▁codifica	-10.9906
▁vargas	-10.9906
▁amazonas	-10.9907
▁avaliação	-10.9907
▁renunciou	-10.9908
▁admir	-10.9909
▁1953	-10.9909
▁montagem	-10.991
▁votado	-10.991
▁usina	-10.9912
▁adição	-10.9913
▁pensamento	-10.9914
▁sasha	-10.9914
▁modificado	-10.9916
▁situações	-10.992
▁escada	-10.9921
▁alterna	-10.9924
▁semestre	-10.9925
iya	-10.9928
▁lady	-10.9931
▁pedir	-10.9934
▁mola	-10.9934
ganhando	-10.9936
inus	-10.9943
▁gian	-10.9946
▁shane	-10.9951
▁une	-10.9952
▁crescente	-10.9952
▁lance	-10.9956
22)	-10.9958
▁what	-10.9965
▁marie	-10.9965
efetiva	-10.9969
▁schw	-10.9971
▁barão	-10.9971
dinho	-10.9975
▁dedicada	-10.9981
▁encontravam	-10.9984
▁criando	-10.9986
▁luu	-10.9988
▁hiro	-10.999
▁south	-10.9995
▁assinar	-11.0011
▁dedicar	-11.0033
▁sora	-11.0035
post	-11.0035
jogador	-11.0054
▁hino	-11.0054
▁frio	-11.006
▁sing	-11.0065
▁sentir	-11.0065
▁causado	-11.0074
coração	-11.0075
▁indic	-11.0078
▁representada	-11.009
▁gustav	-11.0136
▁causada	-11.0144
▁soldado	-11.0148
▁habilidade	-11.0153
3,5	-11.0159
▁documenta	-11.0168
gésim	-11.017
▁cantada	-11.0171
▁importa	-11.0173
▁artilharia	-11.0174
▁brooklyn	-11.0174
▁catarinense	-11.0174
▁complexa	-11.0174
▁créditos	-11.0174
▁dependência	-11.0174
▁ingressa	-11.0174
▁jurídica	-11.0174
▁muçulmana	-11.0174
▁napoleão	-11.0174
▁opiniões	-11.0174
▁pacífico	-11.0174
▁perspectiva	-11.0174
▁reduzir	-11.0174
▁thompson	-11.0174
▁típico	-11.0174
▁violento	-11.0174
▁coligação	-11.0174
▁constantinopla	-11.0174
▁sakura	-11.0174
▁blazers	-11.0174
▁literária	-11.0174
▁estivesse	-11.0174
▁colocou	-11.0174
▁consulta	-11.0174
▁instrumental	-11.0174
▁ordens	-11.0174
▁institucional	-11.0174
▁dilma	-11.0174
▁portland	-11.0174
▁tocou	-11.0174
▁universitária	-11.0175
▁propaganda	-11.0175
▁resgata	-11.0175
▁promete	-11.0175
▁daryl	-11.0176
▁cinza	-11.0177
▁vigésim	-11.0178
▁glory	-11.0178
▁rivalidade	-11.0179
▁diverti	-11.018
▁relacionado	-11.0181
▁never	-11.0182
▁banido	-11.0182
aviation	-11.0185
▁sócio	-11.019
▁billy	-11.0191
▁preocupação	-11.0192
▁preferi	-11.0194
get	-11.0201
▁chuva	-11.0206
▁hit	-11.0216
▁xvi	-11.0216
▁alegando	-11.0224
▁agro	-11.0226
burning	-11.0227
▁contraste	-11.0231
▁amante	-11.0236
▁sétimo	-11.0241
▁reproduz	-11.0247
úria	-11.0252
▁penal	-11.0261
▁aumentou	-11.0265
▁dick	-11.0275
▁cantou	-11.0288
▁gosto	-11.0288
▁milit	-11.0288
▁limita	-11.0291
▁boca	-11.0292
▁consagr	-11.0299
▁encontraram	-11.0322
▁servia	-11.0332
▁august	-11.0337
▁best	-11.0338
2%	-11.0339
▁indicam	-11.0343
▁hidro	-11.0343
▁matou	-11.0348
”)	-11.0358
ópi	-11.0363
mond	-11.0382
▁mitr	-11.041
▁whit	-11.0415
▁sant	-11.0425
▁verifica	-11.0431
▁substantivo	-11.0431
▁parede	-11.0431
▁aspecto	-11.0432
▁poema	-11.0433
▁funcionário	-11.0433
etti	-11.0437
▁1991)	-11.044
eindecker	-11.0451
quilíbrio	-11.0451
saulnier	-11.0451
▁arquipélago	-11.0451
▁assegura	-11.0451
▁bombardeio	-11.0451
▁broadway	-11.0451
▁dezesseis	-11.0451
▁discussão	-11.0451
▁egípcio	-11.0451
▁espiritual	-11.0451
▁guanabara	-11.0451
▁hamilton	-11.0451
▁mínimo	-11.0451
▁móveis	-11.0451
▁nigéria	-11.0451
▁profissão	-11.0451
▁raízes	-11.0451
▁retirou	-11.0451
▁secundária	-11.0451
▁vigilância	-11.0451
▁vladimir	-11.0451
▁gonçalo	-11.0451
▁interface	-11.0451
▁promocional	-11.0451
▁visitou	-11.0451
▁coincid	-11.0451
▁dirigir	-11.0451
▁falecer	-11.0451
▁houston	-11.0451
▁pianista	-11.0451
▁arredores	-11.0451
▁continente	-11.0451
▁infanto	-11.0451
▁israel	-11.0451
▁itunes	-11.0451
▁reforça	-11.0451
▁extinta	-11.0451
▁humanidade	-11.0451
▁sevilha	-11.0451
▁formosa	-11.0451
▁nuvem	-11.0451
▁baterista	-11.0451
▁oponente	-11.0451
▁díli	-11.0451
▁triplo	-11.0452
▁léon	-11.0452
▁imposto	-11.0452
▁educacional	-11.0452
divisões	-11.0452
▁vieram	-11.0452
▁promotor	-11.0452
▁envolvida	-11.0452
▁comentou	-11.0452
▁sentença	-11.0453
▁magnus	-11.0453
▁crônica	-11.0453
▁teresa	-11.0454
▁edison	-11.0454
saurus	-11.0454
coreano	-11.0455
▁lauren	-11.0455
chouriç	-11.0455
▁powell	-11.0456
▁tensão	-11.0456
▁clark	-11.0457
▁prazo	-11.0459
estrelou	-11.046
▁documentação	-11.0462
▁todavia	-11.0462
▁justifica	-11.0463
provou	-11.0466
▁ptb	-11.0469
▁conservação	-11.0469
▁novella	-11.0474
▁iniciais	-11.0474
▁constantemente	-11.0476
▁1887	-11.0479
▁tirar	-11.048
▁usava	-11.0483
▁montado	-11.0483
▁transformação	-11.0485
▁melhorar	-11.0488
▁aplica	-11.0492
▁jogado	-11.0494
▁lutadores	-11.0502
itude	-11.0509
▁missa	-11.0514
▁descobri	-11.0525
▁oculta	-11.0526
▁sargento	-11.0526
▁registrada	-11.0541
▁filia	-11.0542
▁pagan	-11.0546
▁aceitar	-11.0553
▁moon	-11.0554
▁constitui	-11.0577
head	-11.0591
▁liberta	-11.0594
▁corredor	-11.0594
hall	-11.0605
▁barro	-11.0607
▁pk	-11.0611
▁abandonar	-11.0614
juvenil	-11.0616
music	-11.062
pala	-11.0621
gul	-11.0629
home	-11.0634
▁shan	-11.0639
▁unifica	-11.0643
▁distribui	-11.0652
▁grão	-11.0657
▁1988)	-11.0666
▁puc	-11.0679
dó	-11.0685
▁boi	-11.0687
▁adaptado	-11.0687
▁controlado	-11.0697
stream	-11.0702
▁model	-11.0703
wake	-11.0715
▁organismo	-11.0725
▁aparente	-11.0725
▁colaborador	-11.073
preendido	-11.0737
▁abandonou	-11.0737
▁armênia	-11.0737
▁blindado	-11.0737
▁concluída	-11.0737
▁concluído	-11.0737
▁considerou	-11.0737
▁cristóvão	-11.0737
▁fuselagem	-11.0737
▁gonçalves	-11.0737
▁grêmio	-11.0737
▁haumea	-11.0737
▁infiltra	-11.0737
▁inquérito	-11.0737
▁licenciado	-11.0737
▁mesopotâmia	-11.0737
▁ocorrência	-11.0737
▁submetido	-11.0737
▁sucessão	-11.0737
▁tailandês	-11.0737
▁tempestade	-11.0737
▁tripulação	-11.0737
▁índios	-11.0737
▁concílio	-11.0737
▁consolida	-11.0737
▁frankfurt	-11.0737
▁gakuin	-11.0737
▁lúcio	-11.0737
▁riqueza	-11.0737
▁supervision	-11.0737
▁consenso	-11.0737
▁numeroso	-11.0737
▁extremo	-11.0737
▁supremo	-11.0737
▁tradições	-11.0737
▁alcance	-11.0737
▁tomatoes	-11.0737
▁organizar	-11.0737
▁batizado	-11.0737
▁humanista	-11.0737
▁monarca	-11.0737
▁havana	-11.0737
▁consumo	-11.0737
▁clipe	-11.0737
▁equador	-11.0737
▁acelera	-11.0738
▁opcional	-11.0738
▁inovador	-11.0738
-200	-11.0738
▁basquetebol	-11.0738
▁child	-11.0738
▁amália	-11.0738
▁legado	-11.0739
▁ribas	-11.0739
▁dominante	-11.0739
▁nazista	-11.0739
▁platina	-11.074
▁massena	-11.074
▁palmeiras	-11.074
▁favorável	-11.0741
▁ajay	-11.0742
▁hammon	-11.0742
▁representam	-11.0742
▁marques	-11.0743
▁assistir	-11.0743
▁volante	-11.0744
▁1906	-11.0744
▁pronome	-11.0745
▁alternativo	-11.0746
2013	-11.0747
patinador	-11.0748
▁encerramento	-11.0753
▁peito	-11.0755
▁emulador	-11.0756
▁rubens	-11.0757
▁1900	-11.0757
▁sueco	-11.076
▁homenage	-11.0762
▁ernesto	-11.0763
▁seguiram	-11.0764
▁dieta	-11.0765
▁similares	-11.0766
▁interação	-11.0766
▁maceió	-11.0767
quinho	-11.0768
▁entendi	-11.0768
▁interessante	-11.0769
▁camil	-11.0773
▁residente	-11.0775
▁sonda	-11.0776
entre	-11.0776
lying	-11.0777
▁jason	-11.0777
▁vencedores	-11.0779
▁defendendo	-11.078
▁cobre	-11.0781
▁substituir	-11.0784
▁sony	-11.0784
▁aliado	-11.0785
▁pessoais	-11.079
▁poly	-11.0798
▁planet	-11.0803
▁union	-11.0809
etta	-11.0817
▁dinam	-11.0817
▁wild	-11.0821
▁1971)	-11.0821
▁deveriam	-11.0822
tula	-11.0824
▁adam	-11.0825
▁disponibiliza	-11.084
▁mega	-11.0843
▁roque	-11.0846
▁instala	-11.0857
▁saque	-11.086
▁matth	-11.0862
soci	-11.0872
▁carol	-11.0886
▁sche	-11.0903
▁valoriza	-11.0903
doutor	-11.0912
▁avançado	-11.0927
▁bren	-11.093
▁julian	-11.0939
▁homenagear	-11.094
▁vivian	-11.0944
contra	-11.0944
existente	-11.095
sistiu	-11.0955
▁opta	-11.0968
itui	-11.097
▁institu	-11.0973
campo	-11.0997
▁1990)	-11.1015
▁sindical	-11.1017
▁configura	-11.1023
▁paga	-11.1023
▁decidir	-11.1025
▁preparado	-11.1025
▁mede	-11.1027
▁morava	-11.1029
▁acidental	-11.1031
▁anarquista	-11.1031
▁anúncio	-11.1031
▁automóveis	-11.1031
▁cerebral	-11.1031
▁considerável	-11.1031
▁construções	-11.1031
▁coutinho	-11.1031
▁episcopal	-11.1031
▁friedrich	-11.1031
▁homônimo	-11.1031
▁impossível	-11.1031
▁impulsion	-11.1031
▁movimenta	-11.1031
▁necessita	-11.1031
▁organizou	-11.1031
▁plumlee	-11.1031
▁propósito	-11.1031
▁reforço	-11.1031
▁renúncia	-11.1031
▁sacramento	-11.1031
▁television	-11.1031
▁transmitir	-11.1031
▁ucraniano	-11.1031
▁virgílio	-11.1031
▁arranjo	-11.1031
▁baptista	-11.1031
▁chocolate	-11.1031
▁hungria	-11.1031
▁largura	-11.1031
▁mercedes	-11.1031
▁móvel	-11.1031
▁saudita	-11.1031
▁great	-11.1031
▁2012-13	-11.1031
▁extensa	-11.1031
▁fatty	-11.1031
▁mosaico	-11.1031
▁paixão	-11.1031
▁sepultada	-11.1031
▁preveli	-11.1031
▁ocidente	-11.1031
▁paranaense	-11.1032
▁confronta	-11.1032
▁conspira	-11.1032
▁fracasso	-11.1032
▁compõem	-11.1032
▁tiago	-11.1032
▁arábi	-11.1032
▁turística	-11.1032
▁aguiar	-11.1032
▁desfile	-11.1032
▁substância	-11.1033
▁kelly	-11.1033
▁gelson	-11.1034
▁assinatura	-11.1034
▁smart	-11.1034
▁paralelo	-11.1036
▁espada	-11.1037
▁regina	-11.1038
▁planejamento	-11.104
▁1905	-11.104
▁troço	-11.104
view	-11.1041
▁acompanhamento	-11.1042
▁alcançando	-11.1044
mdb	-11.1044
▁amplia	-11.1046
tenho	-11.1047
▁sobrenome	-11.1048
▁estreita	-11.1049
logy	-11.1049
ologista	-11.1055
▁designer	-11.1055
▁habitat	-11.1061
▁denise	-11.1066
▁sorte	-11.1069
▁atp	-11.1075
ítico	-11.1082
▁cabe	-11.1088
▁bandeirante	-11.1095
▁herman	-11.1096
▁xxi	-11.1099
luft	-11.1108
▁ordenado	-11.1111
▁sonic	-11.1125
▁brad	-11.1132
▁chute	-11.114
europe	-11.1147
▁procurador	-11.1174
▁prestado	-11.119
140	-11.1201
lley	-11.1202
duplo	-11.1213
▁cine	-11.1213
science	-11.1213
estrutura	-11.1214
▁blog	-11.1217
▁nacionalista	-11.1218
vpr	-11.1226
▁procurar	-11.1227
▁transit	-11.1259
▁selecion	-11.1277
sauro	-11.1286
▁corta	-11.129
▁dita	-11.1296
falcon	-11.1316
58)	-11.1329
/2009	-11.1334
dromaeossaurídeo	-11.1334
▁benefício	-11.1334
▁determinante	-11.1334
▁esagila	-11.1334
▁exclusivo	-11.1334
▁genérico	-11.1334
▁inclinação	-11.1334
▁membrana	-11.1334
▁minamoto	-11.1334
▁ocasiões	-11.1334
▁ocorrida	-11.1334
▁plástico	-11.1334
▁polêmica	-11.1334
▁possibilit	-11.1334
▁preliminar	-11.1334
▁saxónia	-11.1334
▁sobrevivência	-11.1334
▁subsequente	-11.1334
democrata	-11.1334
▁definição	-11.1334
▁repertório	-11.1334
▁controlo	-11.1334
▁rufino	-11.1334
▁pleito	-11.1334
▁recusou	-11.1334
▁premiado	-11.1334
▁regresso	-11.1334
▁cristina	-11.1334
▁nicolau	-11.1334
▁monroe	-11.1334
▁óleo	-11.1334
bombardeiro	-11.1334
▁seminário	-11.1334
▁toledo	-11.1335
▁examina	-11.1335
▁impresso	-11.1335
▁ibne	-11.1335
▁patrick	-11.1335
▁noronha	-11.1335
▁paradeiro	-11.1335
▁percurso	-11.1335
▁status	-11.1335
▁valentin	-11.1335
▁hitler	-11.1336
▁subgrupo	-11.1336
▁editado	-11.1336
▁(2005	-11.1336
▁traduzido	-11.1337
▁implantação	-11.1339
▁definitivamente	-11.1339
▁remonta	-11.1339
▁gália	-11.1339
▁1992)	-11.134
▁bateria	-11.1341
▁biológico	-11.1341
▁ignor	-11.1341
▁freitas	-11.1341
▁islami	-11.1341
▁harris	-11.1341
▁mtv	-11.1343
shugo	-11.1343
▁oferta	-11.1343
▁define	-11.1345
▁especializado	-11.1348
▁kitt	-11.1349
▁kirk	-11.135
▁computadores	-11.1351
▁lazer	-11.1354
▁prosper	-11.1357
▁ronaldo	-11.1359
▁diplomata	-11.136
▁zero	-11.1369
▁gustavo	-11.1378
▁francisca	-11.1385
▁mudaram	-11.1387
▁votar	-11.1396
▁terminal	-11.1401
▁negociado	-11.1403
▁cordas	-11.1422
▁participado	-11.1429
▁turco	-11.1437
hot	-11.1452
▁declarado	-11.1463
▁lapa	-11.1472
▁icon	-11.1473
tô	-11.1489
▁plu	-11.1495
ball	-11.1502
▁funcion	-11.1515
japonês	-11.1526
inglês	-11.1526
luta	-11.1531
vii	-11.1534
▁jin	-11.1549
right	-11.1551
tradicionalmente	-11.1563
▁resisti	-11.1564
break	-11.1579
▁fernand	-11.1597
tempo	-11.1598
roll	-11.1602
parece	-11.1605
▁bernard	-11.1608
sistência	-11.1609
nacional	-11.1613
presente	-11.1616
▁yan	-11.1621
9%	-11.1621
▁manifesta	-11.1628
▁ambienta	-11.1629
nnie	-11.1629
▁ficava	-11.1637
▁adquirida	-11.1647
▁batalhão	-11.1647
▁bósnia	-11.1647
▁dicionário	-11.1647
▁inglingos	-11.1647
▁matriculou	-11.1647
▁mecânico	-11.1647
▁monarquia	-11.1647
▁rochester	-11.1647
▁sofrido	-11.1647
▁síntese	-11.1647
▁túmulo	-11.1647
▁wrestling	-11.1647
▁arqueólogo	-11.1647
▁eletrônica	-11.1647
▁gaúcho	-11.1647
▁respeita	-11.1647
▁confiança	-11.1647
▁kyrat	-11.1647
▁laranja	-11.1647
▁térmi	-11.1647
▁voisin	-11.1647
▁diretório	-11.1647
▁graduou	-11.1647
▁palestra	-11.1647
▁pedaço	-11.1647
▁fugiu	-11.1647
▁radiação	-11.1647
▁rivais	-11.1647
▁arizona	-11.1647
▁2013-14	-11.1647
▁missionário	-11.1647
▁pedindo	-11.1647
▁azeite	-11.1647
▁desenhado	-11.1647
▁coberta	-11.1647
▁pfl	-11.1647
▁molecular	-11.1647
▁atitude	-11.1647
▁estabiliza	-11.1648
▁australiana	-11.1648
terapia	-11.1648
▁direciona	-11.1649
▁capitais	-11.1649
▁atentado	-11.1649
2:3	-11.165
battlefield	-11.165
▁revisão	-11.165
▁complementares	-11.165
▁geografia	-11.165
▁cauda	-11.165
▁substituição	-11.1651
▁fruto	-11.1652
▁viagens	-11.1654
▁cesar	-11.1654
▁burns	-11.1655
▁manifestação	-11.1657
▁cruzamento	-11.1659
▁senso	-11.1662
▁árvore	-11.1663
▁leitura	-11.1663
▁quadrados	-11.1665
▁choque	-11.1666
▁pilar	-11.1669
▁negativo	-11.167
▁contribuição	-11.1671
▁combinação	-11.1673
▁concedeu	-11.1678
ciência	-11.1681
▁abrigo	-11.1691
▁animada	-11.1695
▁deixaram	-11.1713
▁idol	-11.1729
▁impre	-11.1734
burn	-11.1743
▁conter	-11.1745
▁protesto	-11.1758
▁hidr	-11.1762
▁resultante	-11.1762
▁viana	-11.1778
7,2	-11.179
inger	-11.1791
▁walk	-11.1794
hip	-11.1824
▁lxx	-11.1843
canto	-11.1845
futebolista	-11.1848
história	-11.1849
negro	-11.1849
família	-11.1849
cultura	-11.1855
kawa	-11.1855
pmdb	-11.1858
▁comprado	-11.1862
▁conservador	-11.1875
óide	-11.1876
▁acusa	-11.1892
▁transportado	-11.1913
▁jato	-11.1914
kick	-11.1921
têm	-11.195
8%	-11.1965
▁complementa	-11.1966
▁açúcar	-11.1969
▁cônsul	-11.1969
▁diversidade	-11.1969
▁fantasma	-11.1969
▁feinstein	-11.1969
▁finanças	-11.1969
▁holandês	-11.1969
▁inteligente	-11.1969
▁jardins	-11.1969
▁manuscrito	-11.1969
▁maomé	-11.1969
▁mensagens	-11.1969
▁olimpíada	-11.1969
▁otávio	-11.1969
▁pelicans	-11.1969
▁phyllodocida	-11.1969
▁productions	-11.1969
▁profundidade	-11.1969
▁psicologia	-11.1969
▁thomaz	-11.1969
▁adequado	-11.1969
▁bistã	-11.1969
▁christophe	-11.1969
▁distinção	-11.1969
▁donetsk	-11.1969
▁etimologia	-11.1969
▁everaldo	-11.1969
▁malásia	-11.1969
▁ordenou	-11.1969
▁taylor	-11.1969
▁carnaval	-11.1969
▁cozinha	-11.1969
▁demitido	-11.1969
▁suprema	-11.1969
▁samuel	-11.1969
▁summer	-11.1969
▁recorrente	-11.1969
▁sequencia	-11.1969
▁evolui	-11.1969
▁parecia	-11.1969
frozen	-11.1969
▁fuzil	-11.1969
▁greve	-11.1969
▁manual	-11.197
▁osvaldo	-11.197
ícula	-11.197
▁singular	-11.197
▁lakers	-11.197
▁coberto	-11.1971
▁eliminatórias	-11.1971
▁olhar	-11.1971
▁bancada	-11.1971
▁cabral	-11.1972
cionista	-11.1972
▁kevin	-11.1972
▁prince	-11.1973
▁inspiração	-11.1974
▁mensal	-11.1974
▁daquela	-11.1974
cortés	-11.1974
premier	-11.1976
▁decidiram	-11.1976
▁reprodução	-11.1976
▁sporting	-11.1977
▁1901	-11.1978
▁referir	-11.198
▁autorização	-11.1981
▁falsa	-11.1983
▁urdu	-11.1983
▁protestante	-11.1983
▁substituiu	-11.1984
▁infl	-11.1985
▁1888	-11.1989
▁money	-11.199
▁golden	-11.1991
▁crest	-11.1992
▁ficha	-11.1992
▁armamento	-11.1993
psol	-11.1995
▁descendente	-11.1996
▁impressionante	-11.1996
▁constituinte	-11.1998
▁abandonada	-11.2
shire	-11.2001
adult	-11.2012
▁bateu	-11.2013
bron	-11.2019
▁mauro	-11.2019
▁glen	-11.2022
▁bacia	-11.2023
▁resolveu	-11.2024
▁kid	-11.2027
direct	-11.203
▁integral	-11.2034
▁terço	-11.2037
▁significativo	-11.2041
hawk	-11.2055
▁who	-11.2056
▁clado	-11.2064
▁interpretada	-11.2071
clandestinamente	-11.2071
▁orto	-11.2097
▁marsh	-11.2098
▁marcante	-11.2106
▁trava	-11.211
▁conrad	-11.2183
quadr	-11.2187
opera	-11.2202
bater	-11.2203
▁coordenador	-11.2205
▁ossada	-11.2214
ferir	-11.2223
rank	-11.2239
▁hell	-11.2246
national	-11.2253
mour	-11.2255
space	-11.2265
▁aceito	-11.2271
▁concede	-11.2272
▁procur	-11.2279
▁exclusiva	-11.2291
▁xvii	-11.2299
arquitet	-11.2302
▁propaga	-11.2302
aurornitholestes	-11.2303
grenadier	-11.2303
tenochtitlan	-11.2303
tlatoani	-11.2303
▁alentejano	-11.2303
▁arbuckle	-11.2303
▁blindada	-11.2303
▁bíblia	-11.2303
▁companheira	-11.2303
▁explicou	-11.2303
▁françois	-11.2303
▁glória	-11.2303
▁hidrelétrica	-11.2303
▁lloyd	-11.2303
▁misteriosa	-11.2303
▁moçambique	-11.2303
▁pescoço	-11.2303
▁pickford	-11.2303
▁procedimento	-11.2303
▁protagoniza	-11.2303
▁sacrifício	-11.2303
▁secundarista	-11.2303
▁sucedeu	-11.2303
▁territorial	-11.2303
▁típica	-11.2303
▁voluntário	-11.2303
▁economist	-11.2303
▁gratuita	-11.2303
▁relevante	-11.2303
▁estimula	-11.2303
▁intervenção	-11.2303
▁pádua	-11.2303
▁grammy	-11.2303
▁promessa	-11.2303
▁refrão	-11.2303
▁consultor	-11.2303
▁usual	-11.2303
▁mvp	-11.2303
▁isolado	-11.2303
▁rotten	-11.2303
▁cuidar	-11.2303
▁havendo	-11.2303
▁sartori	-11.2303
▁abílio	-11.2303
▁plena	-11.2304
▁bbc	-11.2304
▁plural	-11.2304
▁flutua	-11.2304
▁prestes	-11.2304
▁rosário	-11.2304
▁executiva	-11.2304
▁esquadrões	-11.2304
▁clippers	-11.2304
▁outono	-11.2304
▁android	-11.2305
▁timorense	-11.2305
▁avó	-11.2306
▁slam	-11.2306
▁figueira	-11.2306
▁prefere	-11.2306
▁estiveram	-11.2308
psi	-11.2308
legou	-11.2309
▁narrativa	-11.231
▁motorizada	-11.231
▁aminu	-11.2311
▁acorda	-11.2312
▁macau	-11.2312
▁balões	-11.2313
▁acusação	-11.2314
▁110	-11.2314
▁especialização	-11.2317
▁traje	-11.2317
▁parlamentares	-11.2322
▁pronto	-11.2323
▁inspirada	-11.2324
▁encarregado	-11.2324
▁areia	-11.2325
▁vasco	-11.2328
▁amaro	-11.233
▁aquino	-11.233
▁temporal	-11.233
▁marge	-11.2331
▁esgot	-11.2331
▁mancha	-11.2332
▁escrevendo	-11.2334
▁reuniram	-11.2337
▁vereadores	-11.2338
▁liberal	-11.2343
▁sobrevivente	-11.235
▁corvo	-11.2353
▁consumi	-11.236
▁mattos	-11.2367
▁filmada	-11.2386
▁existi	-11.239
▁distribu	-11.239
▁ilustrada	-11.2403
▁dark	-11.2434
▁anima	-11.2462
▁liberado	-11.2467
front	-11.2469
▁caractere	-11.247
▁0.1	-11.2473
isso	-11.2477
▁cruzado	-11.248
▁mello	-11.2497
▁executar	-11.2518
grupo	-11.2525
white	-11.2526
7%	-11.2527
título	-11.2527
ografa	-11.2543
▁pesquisador	-11.2545
▁cursa	-11.2566
▁plane	-11.2568
zona	-11.2606
box	-11.2636
▁expedi	-11.2638
▁horizon	-11.2638
▁cidadã	-11.264
▁fight	-11.2647
rokkaku	-11.2647
▁croácia	-11.2647
▁desconhecida	-11.2647
▁dimensões	-11.2647
▁diógenes	-11.2647
▁expectativa	-11.2647
▁filipina	-11.2647
▁interrompe	-11.2647
▁iraquiana	-11.2647
▁journal	-11.2647
▁marquês	-11.2647
▁medicamentos	-11.2647
▁observou	-11.2647
▁pseudônimo	-11.2647
▁recompensa	-11.2647
▁reduzido	-11.2647
▁sequestrado	-11.2647
▁subúrbio	-11.2647
▁surpresa	-11.2647
▁suspenso	-11.2647
▁teórico	-11.2647
▁vingança	-11.2647
▁assírio	-11.2647
▁atingindo	-11.2647
▁patrulha	-11.2647
▁promovida	-11.2647
▁submarino	-11.2647
▁visuais	-11.2647
▁atlanta	-11.2647
▁dispensa	-11.2647
▁laterais	-11.2647
▁certid	-11.2647
▁destruir	-11.2647
▁resgate	-11.2647
▁distinto	-11.2647
▁guiné	-11.2647
▁confundi	-11.2647
▁viúva	-11.2647
▁cardeal	-11.2647
▁deficiência	-11.2648
▁nintendo	-11.2648
▁sábado	-11.2648
▁otomano	-11.2648
▁kingdom	-11.2648
▁desafia	-11.2648
sullivan	-11.2648
▁censo	-11.2648
▁franz	-11.2648
▁texas	-11.2648
▁ferdinand	-11.2648
▁externo	-11.2648
▁reclama	-11.2648
▁acervo	-11.2648
▁wicca	-11.2648
▁dragon	-11.2648
▁perdida	-11.2648
▁outorga	-11.2648
▁elefant	-11.2649
▁açores	-11.2649
▁destinada	-11.2649
▁(2014)	-11.2649
▁plutão	-11.2649
▁gaspar	-11.2649
▁brinca	-11.265
▁alterações	-11.2651
▁josef	-11.2651
▁comparado	-11.2652
▁carneiro	-11.2652
▁volley	-11.2654
▁acusações	-11.2654
▁inventa	-11.2654
▁reuniões	-11.2654
▁camargo	-11.2655
▁herbert	-11.2655
▁essencialmente	-11.2656
▁poderosa	-11.2656
▁peak	-11.2657
▁frontal	-11.2657
▁propôs	-11.2657
▁olaf	-11.266
▁mayer	-11.2668
▁pesquisadores	-11.2669
▁celulares	-11.2674
▁mineral	-11.2675
▁adicional	-11.2675
▁aceitou	-11.2682
▁exteriores	-11.2688
▁historiadores	-11.2689
▁criadores	-11.2691
▁turma	-11.2692
▁iniciaram	-11.2693
▁instalada	-11.2705
▁contratada	-11.2713
▁deserto	-11.2722
▁atinge	-11.2724
▁afro	-11.2726
0,00	-11.2728
▁calça	-11.273
▁jamai	-11.2771
▁gaul	-11.2777
straga	-11.2806
▁esperava	-11.2808
▁comercializa	-11.2834
▁adicionado	-11.2839
▁hand	-11.2863
▁auxilia	-11.2883
▁chip	-11.2914
▁atacado	-11.2921
cél	-11.2951
▁reside	-11.2971
▁republic	-11.3003
▁acadêmica	-11.3005
▁albatros	-11.3005
▁antiguidade	-11.3005
▁argélia	-11.3005
▁autonomia	-11.3005
▁autônoma	-11.3005
▁cardíaco	-11.3005
▁coadjuvante	-11.3005
▁confusão	-11.3005
▁digitais	-11.3005
▁dirigíveis	-11.3005
▁dividiu	-11.3005
▁diálogo	-11.3005
▁evangelista	-11.3005
▁fóssil	-11.3005
▁gratuito	-11.3005
▁inscrições	-11.3005
▁kangala	-11.3005
▁leopoldina	-11.3005
▁lugansk	-11.3005
▁medalhista	-11.3005
▁mérito	-11.3005
▁paroquial	-11.3005
▁presidencial	-11.3005
▁quilómetros	-11.3005
▁reabilitação	-11.3005
▁torigoe	-11.3005
▁ubisoft	-11.3005
▁abundante	-11.3005
▁alegria	-11.3005
▁escritur	-11.3005
▁ferroviária	-11.3005
▁fitzroy	-11.3005
▁hamburgo	-11.3005
▁harvey	-11.3005
▁indenização	-11.3005
▁lincoln	-11.3005
▁matemático	-11.3005
▁revanche	-11.3005
▁rogério	-11.3005
▁dínamo	-11.3005
▁eliminado	-11.3005
▁auxílio	-11.3005
▁logotipo	-11.3005
▁masculina	-11.3005
▁cretense	-11.3005
▁indício	-11.3005
▁pioneira	-11.3005
▁ilegal	-11.3005
▁premiada	-11.3005
▁suicida	-11.3005
▁isolada	-11.3005
▁produzindo	-11.3005
▁táxi	-11.3005
▁efetivamente	-11.3005
▁ocasiona	-11.3005
▁romero	-11.3005
▁bruce	-11.3005
▁midori	-11.3005
▁amarela	-11.3005
▁insetos	-11.3005
▁minaj	-11.3005
▁devanir	-11.3005
▁vamps	-11.3006
▁christian	-11.3006
▁namorado	-11.3006
▁vapor	-11.3006
▁storm	-11.3007
▁fraco	-11.3007
▁operadoras	-11.3007
▁lucena	-11.3008
▁ativamente	-11.3008
ênis	-11.3008
▁turistas	-11.3009
▁virgem	-11.3011
▁concordou	-11.3012
▁1903	-11.3014
▁regista	-11.3014
▁1902	-11.3015
▁sombra	-11.3016
▁suzan	-11.3017
▁olga	-11.3018
▁electro	-11.3021
▁coleções	-11.3023
▁yuan	-11.3024
▁combatentes	-11.3026
▁carmen	-11.3027
▁barbara	-11.3027
▁50%	-11.3028
▁surge	-11.3031
▁acumula	-11.3035
▁perderam	-11.3036
▁range	-11.3042
▁projecto	-11.3043
▁vigia	-11.3045
108	-11.3048
▁falou	-11.3051
▁caridade	-11.3062
▁casca	-11.3064
ción	-11.3064
▁comentário	-11.3069
▁recurso	-11.3076
elefante	-11.3077
estor	-11.3087
▁converte	-11.309
▁chileno	-11.3094
▁dependente	-11.3104
▁vinho	-11.3106
2003	-11.311
▁berlin	-11.312
▁perito	-11.3136
▁ascende	-11.3137
▁disponibilizado	-11.3141
lard	-11.3142
usurpador	-11.315
onic	-11.3152
▁sabor	-11.3165
▁luan	-11.3178
▁brian	-11.3222
mestre	-11.3229
▁blu	-11.3236
254	-11.3246
satélite	-11.3254
imperador	-11.3254
general	-11.3256
norte	-11.3258
suke	-11.3258
▁franc	-11.3263
▁arquiv	-11.3277
6%	-11.3285
▁patrocin	-11.3325
▁austral	-11.333
▁oitav	-11.3365
yuki	-11.3366
▁amazon	-11.3371
macroscelides	-11.3375
montalegre	-11.3375
tríplice	-11.3375
velociraptorinae	-11.3375
▁agostinho	-11.3375
▁arendelle	-11.3375
▁bagdá	-11.3375
▁boanerges	-11.3375
▁celebração	-11.3375
▁continuidade	-11.3375
▁contínua	-11.3375
▁culinária	-11.3375
▁desaparecida	-11.3375
▁destruição	-11.3375
▁ibérica	-11.3375
▁imediato	-11.3375
▁jesuíta	-11.3375
▁jordânia	-11.3375
▁manhoef	-11.3375
▁marighella	-11.3375
▁metropolitana	-11.3375
▁múltiplo	-11.3375
▁patrocínio	-11.3375
▁plástica	-11.3375
▁prestígio	-11.3375
▁provincial	-11.3375
▁pênalti	-11.3375
▁reduzida	-11.3375
▁rousseff	-11.3375
▁spartak	-11.3375
▁substituto	-11.3375
▁visualizações	-11.3375
▁assassino	-11.3375
▁encaminhado	-11.3375
▁especula	-11.3375
▁reportagem	-11.3375
ócrates	-11.3375
▁aprovada	-11.3375
▁cerveró	-11.3375
▁perfeita	-11.3375
▁tesouro	-11.3375
▁survey	-11.3375
▁thiago	-11.3375
▁2008-09	-11.3375
▁marrocos	-11.3375
▁virtude	-11.3375
▁perfura	-11.3375
▁rodovia	-11.3375
▁diversific	-11.3375
▁exposto	-11.3375
nulth	-11.3375
federações	-11.3375
▁seixas	-11.3375
▁priscil	-11.3375
▁culmina	-11.3375
▁negra	-11.3375
▁elliot	-11.3375
▁acertou	-11.3375
▁dieng	-11.3375
▁tigre	-11.3375
▁escultor	-11.3375
▁filiou	-11.3375
▁potente	-11.3376
▁comandada	-11.3376
▁oceano	-11.3376
▁palatino	-11.3376
▁consigo	-11.3376
▁ouviu	-11.3377
▁teodoro	-11.3377
▁chefia	-11.3377
▁precede	-11.3377
▁abuso	-11.3377
▁chanceler	-11.3378
▁automática	-11.3378
▁spring	-11.3378
▁discografia	-11.3379
▁perfeito	-11.3379
▁afoga	-11.3379
▁oposto	-11.338
▁nobreza	-11.3381
▁divina	-11.3381
▁fighter	-11.3381
▁ouvido	-11.3381
▁percorre	-11.3382
▁agrega	-11.3383
▁declarante	-11.3385
pressões	-11.3385
▁institute	-11.3386
stância	-11.3386
▁dourado	-11.3386
▁verbal	-11.3386
▁earth	-11.3388
▁atualização	-11.339
▁ocupantes	-11.339
▁(1995	-11.3392
▁fiji	-11.3394
▁farman	-11.3395
▁cheio	-11.3396
▁auge	-11.3397
▁madri	-11.3399
▁1890	-11.3409
▁superioridade	-11.341
▁diferencial	-11.3411
kung	-11.3414
▁heat	-11.3415
rough	-11.3417
▁enfrentaram	-11.3424
▁apont	-11.3433
▁pasta	-11.3433
consequentemente	-11.3443
▁vigor	-11.3456
▁vasta	-11.346
▁salário	-11.3461
▁derrubar	-11.3472
lheiro	-11.3473
▁participante	-11.3475
eiji	-11.3478
▁ramal	-11.348
▁gru	-11.3501
▁limpa	-11.3527
escen	-11.3549
▁louv	-11.3549
▁turca	-11.3555
round	-11.356
odoro	-11.3567
105	-11.358
▁ilustr	-11.3588
▁justin	-11.3601
179	-11.3636
africano	-11.3638
▁decorrer	-11.3643
ward	-11.3646
mycena	-11.3677
▁petro	-11.3677
▁agita	-11.3683
▁capri	-11.3705
▁solicit	-11.3707
▁public	-11.3713
▁centra	-11.3724
▁encarreg	-11.3734
illian	-11.3741
▁milho	-11.3745
▁respectiva	-11.3748
perante	-11.3756
▁difere	-11.3757
dromaeosaur	-11.376
hideyoshi	-11.376
prosciutto	-11.376
telecomunicações	-11.376
▁9.140/95	-11.376
▁automaticamente	-11.376
▁convocação	-11.376
▁cummings	-11.376
▁eficiente	-11.376
▁eliminação	-11.376
▁estratégico	-11.376
▁extremidade	-11.376
▁gráfica	-11.376
▁hebraico	-11.376
▁heidelberg	-11.376
▁iguaçu	-11.376
▁improvável	-11.376
▁incêndio	-11.376
▁interrompida	-11.376
▁kobayashi	-11.376
▁mexicana	-11.376
▁mexicano	-11.376
▁modernização	-11.376
▁ocidentais	-11.376
▁orgânico	-11.376
▁peregrin	-11.376
▁prússia	-11.376
▁repercussão	-11.376
▁romântico	-11.376
▁rosholt	-11.376
▁rylance	-11.376
▁solidariedade	-11.376
▁terremoto	-11.376
▁triangular	-11.376
▁tétrico	-11.376
▁tóquio	-11.376
▁ênfase	-11.376
▁aguilar	-11.376
▁aquisição	-11.376
▁irregular	-11.376
▁mountain	-11.376
▁sintomas	-11.376
▁torcedores	-11.376
▁óbidos	-11.376
▁alcunha	-11.376
▁arranjad	-11.376
▁crocodilo	-11.376
▁intensifica	-11.376
▁pretendia	-11.376
▁simpson	-11.376
▁coqueiro	-11.376
▁mágico	-11.376
▁turbina	-11.376
▁alcorão	-11.376
▁criminal	-11.376
▁grahame	-11.376
▁corridos	-11.376
▁verbais	-11.376
▁fiéis	-11.376
▁predator	-11.376
▁peralta	-11.376
▁delegacia	-11.376
▁mantinha	-11.376
▁empresarial	-11.376
▁nbc	-11.376
▁hunter	-11.376
▁incomum	-11.376
▁massacre	-11.376
▁penteado	-11.376
▁alencar	-11.376
▁inventor	-11.376
▁renovado	-11.376
▁polônia	-11.376
▁turístico	-11.3761
▁patrício	-11.3761
▁justiniano	-11.3761
▁afastado	-11.3761
▁linear	-11.3761
▁udn	-11.3761
▁selvagem	-11.3761
▁vantagens	-11.3762
▁church	-11.3762
▁angola	-11.3762
▁entregou	-11.3763
▁boxe	-11.3763
palmares	-11.3764
▁search	-11.3766
▁genji	-11.3766
▁reagi	-11.3766
▁ieda	-11.3767
▁lucrativ	-11.3767
▁indoor	-11.3767
▁calvin	-11.3767
▁favorito	-11.3768
▁atraso	-11.3769
▁modificações	-11.377
▁fundamento	-11.3771
▁parcialmente	-11.3771
▁rompe	-11.3773
▁ohio	-11.3774
▁declarações	-11.3774
ofensiv	-11.3777
▁falantes	-11.378
nunam	-11.3783
▁under	-11.3784
▁jornalismo	-11.3785
▁restauração	-11.3787
▁fatal	-11.3788
▁pausa	-11.3796
▁exige	-11.3799
katsu	-11.38
▁rotação	-11.3805
▁year	-11.3815
▁polar	-11.382
▁vaca	-11.3821
olling	-11.388
contacto	-11.3912
compl	-11.3965
▁greg	-11.3967
fortaleza	-11.4038
temporada	-11.4039
programa	-11.4039
▁reformador	-11.4049
700	-11.4067
4%	-11.4071
▁alfred	-11.4122
▁foge	-11.4152
▁parcial	-11.4155
▁contribuí	-11.416
kyokushin	-11.416
smackdown	-11.416
yoritomo	-11.416
▁academy	-11.416
▁alamblak	-11.416
▁arquidiocese	-11.416
▁aureliano	-11.416
▁aurifaber	-11.416
▁babymetal	-11.416
▁bactéria	-11.416
▁beneficia	-11.416
▁capistrano	-11.416
▁cuiabá	-11.416
▁célebre	-11.416
▁económica	-11.416
▁egípcia	-11.416
▁evidencia	-11.416
▁interrogatório	-11.416
▁magazine	-11.416
▁mistério	-11.416
▁molécula	-11.416
▁petrópolis	-11.416
▁residencial	-11.416
▁rondônia	-11.416
▁sepultamento	-11.416
▁tubarões	-11.416
▁uopeople	-11.416
▁xangai	-11.416
yoshikiyo	-11.416
▁alavanca	-11.416
▁colegial	-11.416
▁dimensão	-11.416
▁goiânia	-11.416
▁guardião	-11.416
▁incentiva	-11.416
▁mesquita	-11.416
▁póstumo	-11.416
▁reputação	-11.416
▁válida	-11.416
▁baixista	-11.416
▁colonial	-11.416
▁funerário	-11.416
▁medieval	-11.416
▁vedras	-11.416
▁madonna	-11.416
▁2007-08	-11.416
▁jakob	-11.416
▁renovação	-11.416
▁vertical	-11.416
▁proporção	-11.416
▁computação	-11.416
▁convenção	-11.416
▁betty	-11.416
▁amarelo	-11.416
▁fechou	-11.416
▁precoce	-11.416
▁sagrada	-11.416
▁2011-12	-11.416
▁enterro	-11.416
▁returno	-11.416
▁fratura	-11.416
▁power	-11.416
▁ermida	-11.416
▁removido	-11.416
▁racing	-11.416
▁caribe	-11.416
▁pimentel	-11.416
▁tradutor	-11.416
▁first	-11.416
▁mantida	-11.416
▁armazena	-11.4161
▁anjos	-11.4161
▁donald	-11.4161
▁maduro	-11.4161
▁relativo	-11.4161
migrou	-11.4162
▁generais	-11.4162
▁animation	-11.4162
▁retrato	-11.4162
▁(2006	-11.4162
▁dispõe	-11.4162
▁croata	-11.4163
▁dennis	-11.4163
▁quebrou	-11.4163
▁pagamento	-11.4164
▁libertadores	-11.4167
▁exemplares	-11.4169
envolvi	-11.4169
▁fidel	-11.4171
▁nokia	-11.4171
▁estreito	-11.4172
▁1904	-11.4172
▁campus	-11.4174
▁estabilidade	-11.4176
▁sindicalista	-11.4178
▁interino	-11.4181
▁water	-11.419
▁muscular	-11.42
▁designada	-11.4208
▁crat	-11.4212
▁executada	-11.4213
▁alterado	-11.4237
▁uol	-11.426
▁piso	-11.4265
▁estatística	-11.427
▁válido	-11.427
▁figur	-11.4294
128	-11.4299
▁magic	-11.4309
▁empreendedor	-11.4349
▁tang	-11.4379
▁atribu	-11.4393
conduzido	-11.4407
rapper	-11.4455
league	-11.4455
música	-11.4455
paulo	-11.4458
▁prior	-11.4458
plac	-11.4459
clã	-11.4464
sobre	-11.4466
obama	-11.4477
▁trato	-11.4487
▁week	-11.4498
▁consumido	-11.4506
▁ernest	-11.4538
▁ingresso	-11.4543
▁battle	-11.4572
▁acrescentou	-11.4576
▁atendimento	-11.4576
▁casemiro	-11.4576
▁century	-11.4576
▁clandestino	-11.4576
▁cleveland	-11.4576
▁columbia	-11.4576
▁combustível	-11.4576
▁câmbio	-11.4576
▁defensivo	-11.4576
▁dificulta	-11.4576
▁empreendimento	-11.4576
▁escândalo	-11.4576
▁estrasburgo	-11.4576
▁explosivo	-11.4576
▁filopapo	-11.4576
▁football	-11.4576
▁grávida	-11.4576
▁interrogado	-11.4576
▁kristoff	-11.4576
▁madrugada	-11.4576
▁manchester	-11.4576
▁meridional	-11.4576
▁metalúrgico	-11.4576
▁montreux	-11.4576
▁numerosas	-11.4576
▁penitenciári	-11.4576
▁populações	-11.4576
▁recebida	-11.4576
▁repórter	-11.4576
▁saklatvala	-11.4576
▁sanguíneo	-11.4576
▁sanjurjo	-11.4576
▁saxônia	-11.4576
▁sicília	-11.4576
▁sydney	-11.4576
▁tribunais	-11.4576
▁warriors	-11.4576
▁adequada	-11.4576
▁desmembra	-11.4576
▁douglas	-11.4576
▁marketing	-11.4576
▁obtém	-11.4576
▁reorganiza	-11.4576
▁vitorioso	-11.4576
▁benedito	-11.4576
▁peggy	-11.4576
▁piedade	-11.4576
▁sidney	-11.4576
▁hospeda	-11.4576
▁perícia	-11.4576
comunhão	-11.4576
▁dumont	-11.4576
▁previamente	-11.4576
▁eficiência	-11.4576
▁herança	-11.4576
▁monitora	-11.4576
evolution	-11.4576
▁difundi	-11.4576
▁puderam	-11.4576
▁caminhão	-11.4576
▁hindu	-11.4576
▁atraído	-11.4576
rougier	-11.4577
▁livra	-11.4577
▁trazendo	-11.4577
▁longitude	-11.4577
dengeki	-11.4577
▁estranha	-11.4577
▁valaam	-11.4577
▁legais	-11.4577
▁férias	-11.4577
▁vertente	-11.4577
▁ghz	-11.4577
▁decidido	-11.4577
▁visível	-11.4577
▁dublagem	-11.4577
▁editorial	-11.4577
▁ídolo	-11.4578
▁ipps	-11.4578
▁disposição	-11.4578
▁edition	-11.4579
▁compensa	-11.4579
▁basicamente	-11.4579
▁(2002	-11.4579
▁dialeto	-11.458
▁vitorino	-11.458
▁optou	-11.4581
crystal	-11.4582
▁legend	-11.4582
▁desperta	-11.4582
▁solange	-11.4582
▁intuit	-11.4583
▁centrais	-11.4585
▁factory	-11.4585
▁joelho	-11.4586
▁alteração	-11.4586
▁pds	-11.459
▁frau	-11.459
▁corps	-11.4592
▁alois	-11.4592
▁monteiro	-11.4596
▁hq	-11.4596
▁recuperação	-11.4597
▁mother	-11.4599
shawn	-11.4601
▁clint	-11.4601
▁boom	-11.4613
▁ustra	-11.4617
dolph	-11.4618
room	-11.462
▁oração	-11.4623
▁granada	-11.463
▁nets	-11.4638
▁susan	-11.4639
4,5	-11.4645
▁campan	-11.4682
nasty	-11.4723
▁josh	-11.4728
▁emilia	-11.4759
▁calor	-11.4791
▁cassi	-11.4866
nieuport	-11.489
distrito	-11.489
lembra	-11.4891
diretor	-11.4894
▁convert	-11.4913
govern	-11.4989
▁prejudic	-11.5
▁estiver	-11.5008
▁gastambide	-11.5011
/2005	-11.5011
vvvvvv	-11.5011
▁adolescência	-11.5011
▁almuzafar	-11.5011
▁aspabedes	-11.5011
▁basileia	-11.5011
▁bizantina	-11.5011
▁cerâmica	-11.5011
▁challenger	-11.5011
▁claudia	-11.5011
▁colombiano	-11.5011
▁concedida	-11.5011
▁consórcio	-11.5011
▁declínio	-11.5011
▁discípulo	-11.5011
▁encaixa	-11.5011
▁escravo	-11.5011
▁fortalecer	-11.5011
▁glistrup	-11.5011
▁google	-11.5011
▁hidráulico	-11.5011
▁implementação	-11.5011
▁kennedy	-11.5011
▁lokomotiv	-11.5011
▁melbourne	-11.5011
▁metodista	-11.5011
▁obrigatório	-11.5011
▁prostaglandinas	-11.5011
▁salomão	-11.5011
▁shakespeare	-11.5011
▁sílaba	-11.5011
▁teatral	-11.5011
▁táxon	-11.5011
▁unanimidade	-11.5011
▁ângulo	-11.5011
▁2013–14	-11.5011
▁assemelha	-11.5011
▁belisário	-11.5011
▁competindo	-11.5011
▁hanriot	-11.5011
▁jacques	-11.5011
▁surgimento	-11.5011
▁sylvia	-11.5011
▁anabatista	-11.5011
▁excesso	-11.5011
▁félix	-11.5011
▁2006-07	-11.5011
▁2004-05	-11.5011
▁armênio	-11.5011
▁vogais	-11.5011
▁extinção	-11.5011
▁residir	-11.5011
▁stellar	-11.5011
▁legião	-11.5011
▁petrobras	-11.5011
▁litoral	-11.5011
▁fortuna	-11.5011
▁desvantage	-11.5011
▁presídio	-11.5011
▁condenação	-11.5011
▁brandão	-11.5011
▁estranho	-11.5011
script	-11.5011
instrumentista	-11.5011
▁partilha	-11.5011
▁infini	-11.5011
▁quarent	-11.5011
▁soluções	-11.5012
▁finlândia	-11.5012
▁vitima	-11.5012
judá	-11.5012
▁vivido	-11.5012
▁namorada	-11.5012
▁resumo	-11.5012
▁hardline	-11.5012
▁mouros	-11.5012
▁sermões	-11.5012
attack	-11.5012
▁howard	-11.5013
▁restauro	-11.5013
▁voice	-11.5013
▁apóstolo	-11.5014
▁edmund	-11.5014
▁noturno	-11.5014
▁nahj	-11.5015
▁publicidade	-11.5015
coreana	-11.5015
▁editada	-11.5015
▁longhi	-11.5015
▁favoráveis	-11.5015
▁genética	-11.5015
▁atesta	-11.5015
▁inaugural	-11.5016
▁omaha	-11.5016
▁recording	-11.5017
wonder	-11.5017
▁olavo	-11.5017
▁prevista	-11.5017
▁senna	-11.5018
▁levantamento	-11.5018
▁dourada	-11.5019
▁ferrovia	-11.5019
▁provedor	-11.5022
▁estresse	-11.5024
▁golfo	-11.5026
think	-11.5028
▁florida	-11.5029
style	-11.5032
▁nathan	-11.5035
▁encen	-11.5036
▁comics	-11.5039
mirim	-11.5041
▁aboli	-11.5044
▁energ	-11.5045
lombo	-11.5051
▁selecionada	-11.5054
awaii	-11.5068
▁nascente	-11.5076
▁plantin	-11.5077
anhão	-11.5093
▁coorden	-11.5098
▁vendedor	-11.5106
stituído	-11.5142
▁custa	-11.5145
▁adulto	-11.516
▁campina	-11.5165
▁ltd	-11.5191
enburg	-11.5218
▁devast	-11.5222
daily	-11.5243
drive	-11.5255
special	-11.5266
trailer	-11.5267
action	-11.5296
▁planador	-11.53
conhecido	-11.5321
sargento	-11.5343
língua	-11.5345
membros	-11.5345
incluindo	-11.5345
novela	-11.5348
alien	-11.5362
▁anula	-11.5377
institut	-11.538
mãe	-11.5407
íssimo	-11.5441
▁antoni	-11.5443
capazes	-11.545
8,5	-11.5455
caranguejeira	-11.5466
mackenzie	-11.5466
▁acessível	-11.5466
▁acontecido	-11.5466
▁atlântico	-11.5466
▁bulgária	-11.5466
▁compromete	-11.5466
▁controversa	-11.5466
▁corrêa	-11.5466
▁definitivo	-11.5466
▁desempate	-11.5466
▁diagnóstico	-11.5466
▁estímulo	-11.5466
▁eufrates	-11.5466
▁experiente	-11.5466
▁fundamentais	-11.5466
▁impulso	-11.5466
▁incerteza	-11.5466
▁intelectual	-11.5466
▁jerusalém	-11.5466
▁lawrence	-11.5466
▁mediterrâneo	-11.5466
▁metodologia	-11.5466
▁minkowski	-11.5466
▁origami	-11.5466
▁ortodoxa	-11.5466
▁partidários	-11.5466
▁permitido	-11.5466
▁processamento	-11.5466
▁psicológico	-11.5466
▁setúbal	-11.5466
▁simpatia	-11.5466
▁sofrida	-11.5466
▁suspensão	-11.5466
▁visconde	-11.5466
▁wilhelm	-11.5466
▁acádia	-11.5466
▁armadilha	-11.5466
▁broadcast	-11.5466
▁censura	-11.5466
▁certeza	-11.5466
▁conhecia	-11.5466
▁difusão	-11.5466
▁downtown	-11.5466
▁exigência	-11.5466
▁fotógrafo	-11.5466
▁gaúcha	-11.5466
▁generation	-11.5466
▁marítimo	-11.5466
▁preventiva	-11.5466
▁triunfo	-11.5466
▁condecorado	-11.5466
▁executive	-11.5466
▁infecta	-11.5466
▁prossegui	-11.5466
▁raymond	-11.5466
▁áudio	-11.5466
▁family	-11.5466
▁kozue	-11.5466
▁ocasionalmente	-11.5466
▁previsão	-11.5466
riquenho	-11.5466
▁thunder	-11.5466
▁enfatiza	-11.5466
▁nervos	-11.5466
▁bloqueadora	-11.5466
▁paramount	-11.5466
▁pôde	-11.5466
▁empregada	-11.5466
▁toronto	-11.5466
▁sênior	-11.5466
▁pressiona	-11.5466
▁batizada	-11.5466
▁killer	-11.5466
▁uhf	-11.5466
▁nakhon	-11.5466
▁bebê	-11.5466
▁desculpa	-11.5466
▁excurs	-11.5466
▁margaret	-11.5466
▁barreto	-11.5466
▁marfim	-11.5466
▁budista	-11.5466
▁prisões	-11.5466
monstrou	-11.5466
▁firme	-11.5466
▁encanta	-11.5466
▁dezoito	-11.5466
▁delimita	-11.5467
▁afastou	-11.5467
▁diogo	-11.5467
▁eclip	-11.5467
▁prestou	-11.5467
▁choice	-11.5467
ículo	-11.5467
▁islandês	-11.5468
introdu	-11.5468
▁radial	-11.5468
▁efetivo	-11.5468
▁inibi	-11.5468
▁prático	-11.5469
▁cisco	-11.5469
▁nicolas	-11.5469
▁axel	-11.5469
▁norbert	-11.547
▁perigoso	-11.5471
▁esquadr	-11.5472
▁aspeto	-11.5473
▁aloja	-11.5474
▁concorrentes	-11.5475
teaser	-11.5476
▁agenda	-11.5476
▁miró	-11.5478
▁expressões	-11.5479
▁redator	-11.548
macaé	-11.5497
▁criativa	-11.5519
▁ilustrador	-11.5534
cessar	-11.5537
funk	-11.5586
▁educador	-11.5586
▁minuto	-11.5642
matsu	-11.567
culares	-11.5674
american	-11.5709
▁dubla	-11.5741
produção	-11.5811
[...]	-11.582
badajoz	-11.5821
world	-11.5821
lisboa	-11.5821
embora	-11.5822
gree	-11.5825
cruz	-11.5826
▁certifica	-11.5827
ologi	-11.5863
grand	-11.5872
magist	-11.5885
▁impressiona	-11.5901
▁ronald	-11.5905
▁essencial	-11.593
900	-11.5932
antiga	-11.5941
▁artificial	-11.5942
▁concreta	-11.5942
/2001	-11.5942
ndémica	-11.5942
tragédie	-11.5942
▁afluente	-11.5942
▁austríaco	-11.5942
▁basketball	-11.5942
▁bibliografia	-11.5942
▁botafogo	-11.5942
▁cerimónia	-11.5942
▁chelsea	-11.5942
▁cinquenta	-11.5942
▁concretiz	-11.5942
▁connecticut	-11.5942
▁contínuo	-11.5942
▁defensiva	-11.5942
▁discussões	-11.5942
▁entretenimento	-11.5942
▁espécime	-11.5942
▁fantástico	-11.5942
▁getúlio	-11.5942
▁geórgia	-11.5942
▁hildebrand	-11.5942
▁hélcio	-11.5942
▁influenza	-11.5942
▁inédito	-11.5942
▁lavecchia	-11.5942
▁leopoldo	-11.5942
▁murphy	-11.5942
▁necropsia	-11.5942
▁orgulho	-11.5942
▁phoenix	-11.5942
▁piracicaba	-11.5942
▁ponkã	-11.5942
▁pígela	-11.5942
▁quarteto	-11.5942
▁quântica	-11.5942
▁remanescente	-11.5942
▁scherzinger	-11.5942
▁vinculado	-11.5942
▁vínculo	-11.5942
ipatinga	-11.5942
▁adjunto	-11.5942
▁beltrão	-11.5942
▁desembarc	-11.5942
▁gêmeo	-11.5942
▁idéia	-11.5942
▁voerões	-11.5942
▁alexandrino	-11.5942
▁inocente	-11.5942
▁pároco	-11.5942
▁detalhada	-11.5942
▁permitia	-11.5942
meccano	-11.5942
▁eficaz	-11.5942
▁lendária	-11.5942
▁multidão	-11.5942
▁honduras	-11.5942
▁tiradentes	-11.5942
▁incentivo	-11.5942
▁snoop	-11.5942
▁issami	-11.5942
▁reginaldo	-11.5942
governamentais	-11.5942
▁bancário	-11.5942
▁brutal	-11.5942
▁enterrada	-11.5942
▁boeing	-11.5942
▁desenhada	-11.5942
▁benfica	-11.5942
▁lousã	-11.5942
▁decisões	-11.5942
▁invenção	-11.5942
▁lambert	-11.5942
halske	-11.5942
▁hirata	-11.5942
▁three	-11.5942
▁greco	-11.5942
▁marxista	-11.5942
▁randy	-11.5942
▁relevo	-11.5942
▁sensação	-11.5942
▁eliminar	-11.5942
▁desistir	-11.5942
▁útil	-11.5942
estilizado	-11.5942
▁esquema	-11.5942
▁uberlândia	-11.5942
▁resenha	-11.5942
▁brasão	-11.5942
▁painel	-11.5942
▁embrião	-11.5943
▁onofre	-11.5943
▁transdutor	-11.5943
▁assusta	-11.5943
▁temple	-11.5943
▁munique	-11.5943
▁everton	-11.5943
▁sofria	-11.5943
▁moore	-11.5943
▁dorival	-11.5944
▁irrita	-11.5944
▁kirin	-11.5944
▁sociologia	-11.5944
▁marinheiros	-11.5944
▁sacre	-11.5944
▁(2013)	-11.5944
▁menzel	-11.5945
▁harold	-11.5945
▁milhas	-11.5945
▁vencida	-11.5946
▁store	-11.5946
▁sammy	-11.5947
▁court	-11.5947
▁torcida	-11.5947
▁dolores	-11.5947
▁short	-11.5947
mobile	-11.5948
gyō	-11.5949
▁regente	-11.5949
▁iodo	-11.596
▁esmag	-11.5992
▁0,4	-11.5996
australian	-11.5997
113	-11.6
▁abandona	-11.6005
▁patrocinador	-11.6007
▁entende	-11.6083
siege	-11.6092
pareceram	-11.6144
7,4	-11.6148
3,8	-11.6149
tendem	-11.6196
filiação	-11.6236
▁instrutor	-11.6266
endê	-11.6304
africana	-11.632
você	-11.6322
girl	-11.6324
ativação	-11.6401
sidência	-11.643
▁augsburg	-11.6442
▁húngaro	-11.6442
balaghah	-11.6442
gênesis	-11.6442
intercontinental	-11.6442
motecuhzoma	-11.6442
species	-11.6442
▁adalberto	-11.6442
▁antártida	-11.6442
▁apostólico	-11.6442
▁atmosfera	-11.6442
▁bicicleta	-11.6442
▁cavalcanti	-11.6442
▁celestino	-11.6442
▁chávez	-11.6442
▁concessão	-11.6442
▁concorrência	-11.6442
▁cordilheira	-11.6442
▁cotidiano	-11.6442
▁cálculo	-11.6442
▁cândido	-11.6442
▁dinamarquês	-11.6442
▁diplomática	-11.6442
▁disponibilidade	-11.6442
▁ditatorial	-11.6442
▁doméstica	-11.6442
▁drummond	-11.6442
▁endereço	-11.6442
▁estratégica	-11.6442
▁estremadura	-11.6442
▁excelência	-11.6442
▁fazendeiro	-11.6442
▁feliciano	-11.6442
▁frederick	-11.6442
▁ghoochannejhad	-11.6442
▁hispânia	-11.6442
▁hospitais	-11.6442
▁identificou	-11.6442
▁joachim	-11.6442
▁jurássico	-11.6442
▁linguística	-11.6442
▁lourenço	-11.6442
▁marchetti	-11.6442
▁marechal	-11.6442
▁multiplayer	-11.6442
▁necessariamente	-11.6442
▁nicholas	-11.6442
▁niterói	-11.6442
▁nuggets	-11.6442
▁peculiar	-11.6442
▁pergaminho	-11.6442
▁principado	-11.6442
▁requisitos	-11.6442
▁subordinado	-11.6442
▁suíones	-11.6442
▁tecnológica	-11.6442
▁tragédia	-11.6442
▁transmissões	-11.6442
▁tráfego	-11.6442
▁vestígios	-11.6442
takatsugu	-11.6442
▁adelaide	-11.6442
▁anselmo	-11.6442
▁aylton	-11.6442
▁clarence	-11.6442
▁impulsão	-11.6442
▁instalou	-11.6442
▁mármore	-11.6442
▁permanência	-11.6442
▁suspense	-11.6442
▁tipicamente	-11.6442
▁algarve	-11.6442
▁ayrton	-11.6442
▁colegiado	-11.6442
▁esperantista	-11.6442
▁iraniano	-11.6442
▁projetada	-11.6442
▁transmissor	-11.6442
▁comendador	-11.6442
▁leslie	-11.6442
▁vilarinho	-11.6442
▁rezende	-11.6442
▁tokyo	-11.6442
▁cínico	-11.6442
▁sutton	-11.6442
▁virgil	-11.6442
▁exceed	-11.6442
▁proposto	-11.6442
▁aprimora	-11.6442
▁predadores	-11.6442
▁palomar	-11.6442
▁jerry	-11.6442
▁plantarum	-11.6442
▁system	-11.6442
▁moderado	-11.6442
▁parceira	-11.6442
▁ishiro	-11.6442
▁maestro	-11.6442
sulfônico	-11.6442
▁pequim	-11.6442
▁óscar	-11.6442
▁leilão	-11.6442
▁horror	-11.6442
▁rancho	-11.6442
▁salgado	-11.6442
▁nazaré	-11.6442
▁incerta	-11.6442
▁fachada	-11.6442
▁snow	-11.6442
▁luxo	-11.6442
steller	-11.6442
▁aragão	-11.6442
▁sigla	-11.6443
▁beatriz	-11.6443
▁helenístico	-11.6443
▁registo	-11.6443
▁educacionais	-11.6443
▁motta	-11.6443
▁neuromat	-11.6443
▁consciência	-11.6443
▁emitido	-11.6443
▁encabeçad	-11.6443
▁cobrir	-11.6443
▁mercadorias	-11.6443
▁clemente	-11.6443
▁inclusão	-11.6444
▁reflete	-11.6444
▁iluminação	-11.6444
▁constituía	-11.6444
▁paraíso	-11.6444
▁impressa	-11.6444
▁2009-10	-11.6445
▁convive	-11.6445
▁collor	-11.6445
▁novidade	-11.6446
▁(2004	-11.6446
▁warren	-11.6446
▁abordagem	-11.6446
▁ajuste	-11.6447
▁deposto	-11.6449
▁tarso	-11.6449
onrad	-11.6453
▁renovar	-11.6456
▁pecado	-11.6461
▁oliver	-11.6462
extend	-11.6462
mouth	-11.6468
nzel	-11.6483
alexandr	-11.6486
▁dominado	-11.6487
pleno	-11.6505
▁acerta	-11.6526
▁cometer	-11.6539
▁0,3	-11.6595
▁pagã	-11.6616
disciplinar	-11.6691
tribuição	-11.6705
sagrando	-11.6733
scendeu	-11.678
quot	-11.6821
figura	-11.6843
graduação	-11.6846
coronel	-11.6847
«	-11.6847
oficial	-11.6848
gênero	-11.6848
livro	-11.6848
depois	-11.6848
militar	-11.6849
segundo	-11.6849
▁conjunta	-11.6861
senhor	-11.6863
maior	-11.6888
preende	-11.6895
▁inaugur	-11.6942
▁mecklenburg	-11.6968
/2012	-11.6968
compreensão	-11.6968
leksandr	-11.6968
peacebuilding	-11.6968
schuckert	-11.6968
yasutsuna	-11.6968
▁abastecimento	-11.6968
▁ancestral	-11.6968
▁apelidado	-11.6968
▁apucarana	-11.6968
▁assassinada	-11.6968
▁astronomi	-11.6968
▁automóvel	-11.6968
▁babilónica	-11.6968
▁bilhão	-11.6968
▁blossfeld	-11.6968
▁catálogo	-11.6968
▁centímetros	-11.6968
▁depósitos	-11.6968
▁divergência	-11.6968
▁emergência	-11.6968
▁encoraja	-11.6968
▁engloba	-11.6968
▁esclarece	-11.6968
▁herzegovina	-11.6968
▁houtman	-11.6968
▁inimigas	-11.6968
▁jérsei	-11.6968
▁königsberg	-11.6968
▁lecapeno	-11.6968
▁leftovers	-11.6968
▁limpeza	-11.6968
▁magnético	-11.6968
▁mamífero	-11.6968
▁metropolitano	-11.6968
▁milímetros	-11.6968
▁montanhosa	-11.6968
▁netflix	-11.6968
▁percepção	-11.6968
▁pernambucano	-11.6968
▁petersburgo	-11.6968
▁preservação	-11.6968
▁respectivo	-11.6968
▁retangular	-11.6968
▁sexuais	-11.6968
▁sincronização	-11.6968
▁sinônimo	-11.6968
▁superintendente	-11.6968
▁suprimentos	-11.6968
▁tabitha	-11.6968
▁temporariamente	-11.6968
▁tocantins	-11.6968
▁túnel	-11.6968
▁veneziano	-11.6968
▁ângelo	-11.6968
▁édouard	-11.6968
▁cinematográfico	-11.6968
▁claude	-11.6968
▁conexões	-11.6968
▁consciente	-11.6968
▁desconfia	-11.6968
▁margarida	-11.6968
▁medianeira	-11.6968
▁transformou	-11.6968
▁tubarão	-11.6968
▁goulart	-11.6968
▁morfologia	-11.6968
▁pershing	-11.6968
▁renomado	-11.6968
babilônia	-11.6968
▁cachoeira	-11.6968
▁heavy	-11.6968
▁lynch	-11.6968
▁sepultura	-11.6968
▁sorriso	-11.6968
▁assíria	-11.6968
▁disposto	-11.6968
▁funcionalidade	-11.6968
▁preservada	-11.6968
▁banheiro	-11.6968
▁mágica	-11.6968
▁dispersa	-11.6968
▁iguais	-11.6968
goldwyn	-11.6968
▁enzima	-11.6968
▁frustra	-11.6968
▁teclado	-11.6968
▁bunko	-11.6968
▁manchete	-11.6968
▁anahí	-11.6968
▁reinaldo	-11.6968
▁desportiva	-11.6968
▁rendição	-11.6968
▁(2012)	-11.6968
▁focinho	-11.6968
▁colisão	-11.6968
▁cartoon	-11.6968
▁know	-11.6968
▁moinet	-11.6968
▁cabrito	-11.6968
▁ensinamentos	-11.6968
▁percé	-11.6968
▁cometido	-11.6968
▁festina	-11.6969
aldomiro	-11.6969
pourri	-11.6969
migração	-11.6969
▁theatre	-11.6969
▁denominações	-11.6969
▁utah	-11.6969
▁serápis	-11.6969
▁deputada	-11.6969
▁genoma	-11.6969
▁lempo	-11.6969
▁cmtv	-11.6969
▁encosta	-11.6969
▁igualdade	-11.6969
▁volks	-11.6969
▁sbt	-11.6969
▁through	-11.6969
deutsche	-11.697
▁basílio	-11.697
▁buraco	-11.697
▁creek	-11.6971
▁profeta	-11.6971
▁adolf	-11.6971
▁movido	-11.6971
▁vogal	-11.6971
▁elevação	-11.6971
▁tebas	-11.6972
▁veneno	-11.6972
▁disposta	-11.6973
▁etnia	-11.6973
▁engana	-11.6974
ólio	-11.6979
▁point	-11.6979
▁jessi	-11.698
▁acomoda	-11.698
0,8	-11.6987
vincent	-11.699
6,9	-11.7
▁respond	-11.7004
▁desvio	-11.7037
▁arquea	-11.7084
▁lamb	-11.7116
barbas	-11.7129
tamb	-11.7129
▁postula	-11.7135
egil	-11.7141
tivismo	-11.7196
▁dinossauro	-11.7218
nunciou	-11.7275
▁palmeir	-11.7275
▁encontr	-11.7292
gregação	-11.7298
▁usurp	-11.73
cabeça	-11.7401
comandante	-11.7403
aliança	-11.7403
império	-11.7403
direito	-11.7403
primeiro	-11.7403
sistema	-11.7403
faixa	-11.7405
estrela	-11.7405
▁regulamenta	-11.7416
soft	-11.75
▁exemplar	-11.7511
▁imediata	-11.7512
▁habitual	-11.7524
▁predominante	-11.7524
▁technolog	-11.7524
aéronautique	-11.7524
desembarque	-11.7524
intendência	-11.7524
sehnsucht	-11.7524
waukee	-11.7524
▁abramovitc	-11.7524
▁aclamado	-11.7524
▁adventure	-11.7524
▁ascendidos	-11.7524
▁baldwin	-11.7524
▁chácara	-11.7524
▁clivagem	-11.7524
▁colapso	-11.7524
▁concepção	-11.7524
▁cúpula	-11.7524
▁doméstico	-11.7524
▁epitácio	-11.7524
▁evangélica	-11.7524
▁farasmanes	-11.7524
▁fictício	-11.7524
▁gravataiense	-11.7524
▁grundy	-11.7524
▁hebraica	-11.7524
▁hubmaier	-11.7524
▁imediações	-11.7524
▁invasores	-11.7524
▁invicta	-11.7524
▁jersey	-11.7524
▁júpiter	-11.7524
▁kamakura	-11.7524
▁knicks	-11.7524
▁konstantinov	-11.7524
▁líbero	-11.7524
▁maximilian	-11.7524
▁músculo	-11.7524
▁nakamura	-11.7524
▁nomenclatura	-11.7524
▁náutico	-11.7524
▁olivier	-11.7524
▁orgânica	-11.7524
▁paquistão	-11.7524
▁pistoris	-11.7524
▁pulmonar	-11.7524
▁refugiados	-11.7524
▁remodelação	-11.7524
▁renault	-11.7524
▁requisição	-11.7524
▁retroativa	-11.7524
▁schmidt	-11.7524
▁sheriff	-11.7524
▁singapura	-11.7524
▁sofrimento	-11.7524
▁sucessivamente	-11.7524
▁testosterona	-11.7524
▁tolerância	-11.7524
▁vasconcelos	-11.7524
nobutsuna	-11.7524
ódromo	-11.7524
▁aleixo	-11.7524
▁bastidores	-11.7524
▁eliminada	-11.7524
▁gravura	-11.7524
▁isolamento	-11.7524
▁mantiveram	-11.7524
▁oxigênio	-11.7524
▁pascoal	-11.7524
▁payback	-11.7524
▁recuperou	-11.7524
▁rituais	-11.7524
▁teórica	-11.7524
shogunato	-11.7524
▁bezerra	-11.7524
▁celebrar	-11.7524
▁conversor	-11.7524
▁licitação	-11.7524
▁panorama	-11.7524
▁piauí	-11.7524
▁requerimento	-11.7524
▁rollins	-11.7524
▁simboliza	-11.7524
▁auditoria	-11.7524
▁carrasco	-11.7524
▁ferroviário	-11.7524
▁historicamente	-11.7524
▁ritual	-11.7524
▁ruggia	-11.7524
▁cameron	-11.7524
▁salácia	-11.7524
▁trindade	-11.7524
▁violão	-11.7524
▁(2008)	-11.7524
▁intenso	-11.7524
▁preservado	-11.7524
▁2005-06	-11.7524
▁claire	-11.7524
▁ingrid	-11.7524
▁olympi	-11.7524
▁channel	-11.7524
▁letrista	-11.7524
▁minogue	-11.7524
▁plateia	-11.7524
▁decidida	-11.7524
▁maciço	-11.7524
▁2010-11	-11.7524
▁exumação	-11.7524
▁pezão	-11.7524
▁pietro	-11.7524
▁premiê	-11.7524
▁expulsa	-11.7524
▁celtics	-11.7524
▁atacou	-11.7524
▁multiplic	-11.7524
▁molusco	-11.7524
▁lesbos	-11.7524
▁hoffman	-11.7524
▁mendoza	-11.7524
▁alberi	-11.7524
▁precursor	-11.7524
▁regravada	-11.7524
▁característico	-11.7524
▁manobra	-11.7524
▁ressalta	-11.7524
▁traição	-11.7524
▁peña	-11.7524
▁women	-11.7524
▁frango	-11.7524
▁bruxa	-11.7524
▁rifle	-11.7524
▁negou	-11.7524
▁cbf	-11.7524
▁kyle	-11.7524
▁visíveis	-11.7524
▁baleado	-11.7524
▁diariamente	-11.7524
▁preservar	-11.7524
▁vinil	-11.7525
flagelo	-11.7525
▁temporária	-11.7525
▁pascal	-11.7525
▁obtiver	-11.7525
▁bravo	-11.7525
▁bebida	-11.7525
▁saudade	-11.7525
▁emitida	-11.7525
▁pérsi	-11.7525
▁azuis	-11.7525
▁obrigada	-11.7526
▁édson	-11.7526
▁preveni	-11.7527
▁resumi	-11.7527
▁pilotagem	-11.7527
▁exibe	-11.7527
▁directa	-11.7529
▁decorrente	-11.7531
▁congela	-11.7535
oswaldo	-11.7557
▁rodead	-11.7583
▁escapa	-11.7594
▁0,5	-11.763
problem	-11.7631
weekly	-11.7634
word	-11.7725
edição	-11.7753
6,7	-11.7796
empurra	-11.7989
sasaki	-11.7991
esquerda	-11.7991
moderna	-11.7991
américa	-11.7991
dvd	-11.7992
mulher	-11.7995
what	-11.7996
▁absolut	-11.804
▁dirige	-11.808
▁potencia	-11.8095
streit	-11.8098
▁ilumin	-11.8109
independent	-11.8111
congrega	-11.8112
impeachment	-11.8112
monkeyshines	-11.8112
sustentável	-11.8112
▁afeganistão	-11.8112
▁alfabeto	-11.8112
▁aluísio	-11.8112
▁antagonista	-11.8112
▁arkhipov	-11.8112
▁aurélio	-11.8112
▁bárbara	-11.8112
▁celebridade	-11.8112
▁concebido	-11.8112
▁convencional	-11.8112
▁cuneiforme	-11.8112
▁evolutiva	-11.8112
▁farmácia	-11.8112
▁frangocastelo	-11.8112
▁geometria	-11.8112
▁groningen	-11.8112
▁hectares	-11.8112
▁heinrich	-11.8112
▁heródoto	-11.8112
▁inscreveu	-11.8112
▁interferência	-11.8112
▁jonathan	-11.8112
▁lauriberto	-11.8112
▁magomedov	-11.8112
▁mavericks	-11.8112
▁melanchthon	-11.8112
▁memphis	-11.8112
▁minnesota	-11.8112
▁nápoles	-11.8112
▁parâmetros	-11.8112
▁prorrogação	-11.8112
▁psiquiatra	-11.8112
▁quaresma	-11.8112
▁rabinowitz	-11.8112
▁reconstruído	-11.8112
▁rejeitou	-11.8112
▁rodríguez	-11.8112
▁sheppard	-11.8112
▁strikeforce	-11.8112
▁subespécie	-11.8112
▁subsidiária	-11.8112
▁televisivo	-11.8112
▁timberwolves	-11.8112
▁tomorrow	-11.8112
▁tropical	-11.8112
▁véspera	-11.8112
▁wizards	-11.8112
leopardo	-11.8112
struíram	-11.8112
▁convênio	-11.8112
▁currículo	-11.8112
▁massafumi	-11.8112
▁maududi	-11.8112
▁silvestre	-11.8112
▁terópode	-11.8112
▁wildcard	-11.8112
▁alliance	-11.8112
▁clínico	-11.8112
▁direcção	-11.8112
▁guarnição	-11.8112
▁intervenções	-11.8112
▁macarini	-11.8112
▁supervisão	-11.8112
▁definiu	-11.8112
▁karnali	-11.8112
▁peroguarda	-11.8112
▁secretária	-11.8112
▁dublin	-11.8112
▁esboço	-11.8112
▁rochoso	-11.8112
▁happy	-11.8112
▁incrível	-11.8112
▁nikola	-11.8112
▁passiva	-11.8112
▁estimou	-11.8112
▁agraciado	-11.8112
▁wheel	-11.8112
▁fuxico	-11.8112
▁soberano	-11.8112
▁assistida	-11.8112
▁prefixo	-11.8112
▁pregoni	-11.8112
▁ícone	-11.8112
▁estudantis	-11.8112
▁cremona	-11.8112
▁adfp	-11.8112
▁anitta	-11.8112
▁assistido	-11.8112
▁brasiliense	-11.8112
▁mendonça	-11.8112
▁shadow	-11.8112
espionagem	-11.8112
▁forçou	-11.8112
▁funeral	-11.8112
▁inferno	-11.8112
▁protegido	-11.8112
▁presencia	-11.8112
▁levantou	-11.8112
▁competidor	-11.8112
▁ideologia	-11.8112
▁samurai	-11.8112
47171	-11.8112
▁desenterra	-11.8112
▁leciona	-11.8112
▁conforto	-11.8112
▁celoma	-11.8112
supermarine	-11.8112
▁idosos	-11.8112
▁ōmi	-11.8112
▁hmv	-11.8112
▁fisher	-11.8112
▁rockets	-11.8113
▁enquadra	-11.8113
▁trilhos	-11.8113
▁rhode	-11.8113
▁vilão	-11.8113
▁cadete	-11.8113
▁sapato	-11.8113
▁intima	-11.8113
▁oregon	-11.8113
glacial	-11.8113
▁aviadores	-11.8113
▁kwon	-11.8113
▁marshall	-11.8114
▁arnold	-11.8114
fascista	-11.8115
puseram	-11.812
nxt	-11.8123
▁mencion	-11.8144
sebrae	-11.8237
esporo	-11.8298
eagle	-11.8301
estimada	-11.8318
9,8	-11.8422
▁gamb	-11.8547
ograma	-11.8558
▁concord	-11.859
rostock	-11.8616
intitulado	-11.8616
eleitor	-11.8616
londres	-11.8616
recife	-11.8616
▁insisti	-11.8693
▁inicio	-11.8704
▁antecede	-11.8735
académi	-11.8737
/2002	-11.8737
alessandro	-11.8737
chiquititas	-11.8737
extremistas	-11.8737
▁absorção	-11.8737
▁acontecia	-11.8737
▁acústica	-11.8737
▁albuquerque	-11.8737
▁assentamento	-11.8737
▁atlantic	-11.8737
▁bangkok	-11.8737
▁bilhetes	-11.8737
▁brianezi	-11.8737
▁budapeste	-11.8737
▁bótoa	-11.8737
▁bônus	-11.8737
▁cavaliers	-11.8737
▁centenário	-11.8737
▁châlons	-11.8737
▁cláudia	-11.8737
▁coalizão	-11.8737
▁complexidade	-11.8737
▁conceitua	-11.8737
▁convencionais	-11.8737
▁dinâmico	-11.8737
▁dirigindo	-11.8737
▁dirigível	-11.8737
▁económico	-11.8737
▁explodi	-11.8737
▁filogenia	-11.8737
▁fórum	-11.8737
▁grenaldo	-11.8737
▁hidroaviões	-11.8737
▁holandesa	-11.8737
▁holandeses	-11.8737
▁homônima	-11.8737
▁horiguchi	-11.8737
▁indireta	-11.8737
▁industry	-11.8737
▁infravermelh	-11.8737
▁ingleses	-11.8737
▁intelectuais	-11.8737
▁juízes	-11.8737
▁kraftwerk	-11.8737
▁mandíbula	-11.8737
▁misterioso	-11.8737
▁mitchell	-11.8737
▁moriuchi	-11.8737
▁mínima	-11.8737
▁módulo	-11.8737
▁nórdico	-11.8737
▁obstante	-11.8737
▁oferecida	-11.8737
▁oposições	-11.8737
▁património	-11.8737
▁personaliza	-11.8737
▁polonês	-11.8737
▁populacional	-11.8737
▁projetista	-11.8737
▁provisório	-11.8737
▁relevância	-11.8737
▁rybaxel	-11.8737
▁scorpion	-11.8737
▁seattle	-11.8737
▁sincronizada	-11.8737
▁suspensa	-11.8737
▁uchtdorf	-11.8737
▁ucraniana	-11.8737
▁universíad	-11.8737
▁weichel	-11.8737
▁yelverton	-11.8737
▁zigurate	-11.8737
urantiomarginata	-11.8737
▁ambicios	-11.8737
▁aperfeiço	-11.8737
▁cirurgião	-11.8737
▁domingues	-11.8737
▁facilidade	-11.8737
▁luterano	-11.8737
▁middle	-11.8737
▁pedreira	-11.8737
▁simpatiza	-11.8737
▁talmadge	-11.8737
▁transversal	-11.8737
blumenau	-11.8737
▁consoantes	-11.8737
▁fujimori	-11.8737
▁hughes	-11.8737
▁rochosa	-11.8737
▁traduções	-11.8737
▁wagner	-11.8737
morfismo	-11.8737
▁botelho	-11.8737
▁escoriações	-11.8737
▁buscou	-11.8737
▁castanho	-11.8737
▁dissolução	-11.8737
▁dívida	-11.8737
▁epicuro	-11.8737
▁rendimento	-11.8737
▁camponeses	-11.8737
▁caxias	-11.8737
▁peniche	-11.8737
▁comissário	-11.8737
▁estilista	-11.8737
▁panfleto	-11.8737
▁projeção	-11.8737
▁decisiva	-11.8737
▁defendia	-11.8737
▁motivação	-11.8737
▁cietto	-11.8737
▁dirigia	-11.8737
▁marlowe	-11.8737
▁metrodoro	-11.8737
▁square	-11.8737
▁dirceu	-11.8737
▁absolv	-11.8737
▁lopez	-11.8737
▁dividir	-11.8737
▁suceder	-11.8737
▁brothers	-11.8737
▁kiev	-11.8737
▁punição	-11.8737
▁torpedo	-11.8737
▁ortiz	-11.8737
▁booth	-11.8737
▁admite	-11.8737
▁sobrinha	-11.8737
▁nichols	-11.8737
▁degradação	-11.8737
▁intimida	-11.8737
▁chinese	-11.8737
▁anuais	-11.8737
escrevia	-11.8737
strói	-11.8738
▁woman	-11.8738
▁adquire	-11.8738
▁predação	-11.8738
▁bindoes	-11.8738
▁penetra	-11.8738
▁console	-11.8738
▁vinci	-11.8738
width	-11.8738
▁desporto	-11.8738
▁roxo	-11.8739
▁presbit	-11.8739
▁ahmed	-11.874
▁claus	-11.8741
evich	-11.8741
▁jaguar	-11.8743
▁inalador	-11.8746
▁multa	-11.8751
▁renasce	-11.8757
namorad	-11.876
ellington	-11.8764
▁radicad	-11.8801
▁nascid	-11.882
dramaturg	-11.8954
ducado	-11.8994
▁fêmea	-11.9098
lookin	-11.9242
curso	-11.9265
estabelece	-11.9281
blériot	-11.9282
anteriormente	-11.9283
domínio	-11.9283
empresa	-11.9283
técnico	-11.9283
primeira	-11.9283
piloto	-11.9283
lateral	-11.9283
▁substituí	-11.929
▁caracter	-11.9369
▁encomend	-11.9387
clipper	-11.94
▁neighbor	-11.9403
idflieg	-11.9403
jagdstaffeln	-11.9403
leutnant	-11.9403
tsaagan	-11.9403
velociraptor	-11.9403
▁agremiação	-11.9403
▁aqueménida	-11.9403
▁artifício	-11.9403
▁assembléia	-11.9403
▁autónoma	-11.9403
▁berkeley	-11.9403
▁biajoni	-11.9403
▁birmânia	-11.9403
▁brinquedos	-11.9403
▁canitrot	-11.9403
▁capixaba	-11.9403
▁cavanagh	-11.9403
▁celebrada	-11.9403
▁cláusula	-11.9403
▁colombiana	-11.9403
▁competitividade	-11.9403
▁concreto	-11.9403
▁condecorações	-11.9403
▁convencido	-11.9403
▁criminoso	-11.9403
▁crispim	-11.9403
▁curiosidade	-11.9403
▁difíceis	-11.9403
▁dissidente	-11.9403
▁dominicana	-11.9403
▁dromaeosaurinae	-11.9403
▁eficácia	-11.9403
▁enfermeira	-11.9403
▁envergadura	-11.9403
▁epidemia	-11.9403
▁espessura	-11.9403
▁estigarribia	-11.9403
▁evangelizar	-11.9403
▁fantoche	-11.9403
▁filogenétic	-11.9403
▁flansburgh	-11.9403
▁folclore	-11.9403
▁germânica	-11.9403
▁glândula	-11.9403
▁hierarquia	-11.9403
▁holótipo	-11.9403
▁híbrido	-11.9403
▁imperatriz	-11.9403
▁integridade	-11.9403
▁invertido	-11.9403
▁jennifer	-11.9403
▁judiciário	-11.9403
▁ludovisi	-11.9403
▁maravilha	-11.9403
▁massachusetts	-11.9403
▁michigan	-11.9403
▁mutavaquil	-11.9403
▁obtenção	-11.9403
▁primordial	-11.9403
▁prodígio	-11.9403
▁receptores	-11.9403
▁refinaria	-11.9403
▁refúgio	-11.9403
▁romênia	-11.9403
▁taxonomia	-11.9403
▁testículos	-11.9403
▁toneladas	-11.9403
▁villanueva	-11.9403
▁virginia	-11.9403
▁vásquez	-11.9403
▁wellcome	-11.9403
▁wlaschin	-11.9403
▁zanirato	-11.9403
▁aeroplane	-11.9403
▁amélia	-11.9403
▁aprofunda	-11.9403
▁assédio	-11.9403
▁bíblica	-11.9403
▁felicidade	-11.9403
▁festividades	-11.9403
▁frugal	-11.9403
▁graphic	-11.9403
▁hereditário	-11.9403
▁imóvel	-11.9403
▁infecção	-11.9403
▁instabilidade	-11.9403
▁moribundo	-11.9403
▁penúltim	-11.9403
▁shamrock	-11.9403
▁tecnológico	-11.9403
▁vitoriosa	-11.9403
metragens	-11.9403
▁borracha	-11.9403
▁colónia	-11.9403
▁corrientes	-11.9403
▁gladiador	-11.9403
▁humilde	-11.9403
▁mcqueen	-11.9403
▁preciosa	-11.9403
▁shinnok	-11.9403
texcoco	-11.9404
▁guardian	-11.9404
▁linnell	-11.9404
▁sensorial	-11.9404
▁traumática	-11.9404
▁gallery	-11.9404
▁kenyon	-11.9404
▁legislativo	-11.9404
▁sheeran	-11.9404
▁stroheim	-11.9404
▁garganta	-11.9404
▁minerais	-11.9404
▁estipul	-11.9404
▁geisel	-11.9404
▁pacheco	-11.9404
▁sensível	-11.9404
▁(2009)	-11.9404
▁júri	-11.9404
▁carroceria	-11.9404
▁observe	-11.9404
▁pátria	-11.9404
▁engaja	-11.9404
▁pitty	-11.9404
▁saturno	-11.9404
▁soccer	-11.9404
▁carvão	-11.9404
▁barulho	-11.9404
▁lentamente	-11.9404
▁tabaco	-11.9404
▁nasalização	-11.9404
▁holland	-11.9404
▁leonor	-11.9404
▁promoções	-11.9404
irlandês	-11.9404
▁bienal	-11.9404
▁fizesse	-11.9404
▁radioativo	-11.9404
▁wyman	-11.9404
▁critics	-11.9404
▁obstru	-11.9404
▁ibms	-11.9404
▁jobim	-11.9404
▁chassis	-11.9404
▁lemmon	-11.9404
rexona	-11.9404
▁arruda	-11.9404
▁ralph	-11.9404
▁suprimi	-11.9404
▁alceri	-11.9404
▁incerto	-11.9404
bakufu	-11.9404
▁vilões	-11.9404
▁bísar	-11.9404
▁delgado	-11.9404
▁batismo	-11.9404
▁sonoro	-11.9404
▁wool	-11.9404
▁redonda	-11.9404
hippie	-11.9405
▁barreira	-11.9405
▁acentua	-11.9405
▁personifica	-11.9405
▁sólida	-11.9405
▁periodis	-11.9405
▁sólido	-11.9405
▁invoca	-11.9406
▁rótul	-11.9406
▁emissário	-11.9406
ruptura	-11.9406
▁duelo	-11.9406
pretty	-11.9408
brazil	-11.9408
▁catalog	-11.9409
radica	-11.9409
▁procede	-11.9409
prtb	-11.9412
corrupt	-11.9412
revisões	-11.9418
judiciais	-11.942
▁giuli	-11.9421
▁guild	-11.9432
opéra	-11.9448
reserva	-11.9494
▁justific	-11.9674
finsler	-11.9697
fried	-11.9815
logica	-11.983
▁possuí	-11.9842
▁desativ	-11.9857
▁substitui	-11.993
juramento	-11.9935
colômbia	-11.9996
química	-11.9997
suíça	-11.9997
século	-11.9997
província	-11.9997
igreja	-11.9997
portugal	-11.9997
christ	-12.0001
▁condiciona	-12.0051
tirado	-12.0086
▁conferi	-12.0097
explor	-12.0099
craft	-12.0115
▁mantê	-12.0117
▁sintetizado	-12.0118
zweibrücken	-12.0118
▁agressiva	-12.0118
▁mohammed	-12.0118
▁paysandu	-12.0118
▁wisconsin	-12.0118
ckleberry	-12.0118
▁(1964-1985)	-12.0118
▁aconselha	-12.0118
▁adjacente	-12.0118
▁advocacia	-12.0118
▁amistosa	-12.0118
▁barcarrota	-12.0118
▁blastômero	-12.0118
▁borasisi	-12.0118
▁brigadeiro	-12.0118
▁burgomestre	-12.0118
▁cafeteira	-12.0118
▁compatriota	-12.0118
▁copacabana	-12.0118
▁craveiro	-12.0118
▁daughter	-12.0118
▁diretrizes	-12.0118
▁discrimina	-12.0118
▁distingue	-12.0118
▁district	-12.0118
▁erudito	-12.0118
▁esqueleto	-12.0118
▁estacionamento	-12.0118
▁evangélico	-12.0118
▁everything	-12.0118
▁exoplaneta	-12.0118
▁extraordinário	-12.0118
▁fictícia	-12.0118
▁foundation	-12.0118
▁gershwin	-12.0118
▁gonzález	-12.0118
▁gravidez	-12.0118
▁homicídio	-12.0118
▁hormônios	-12.0118
▁infelizmente	-12.0118
▁legítimo	-12.0118
▁management	-12.0118
▁nefelina	-12.0118
▁nielsen	-12.0118
▁painéis	-12.0118
▁perguntou	-12.0118
▁philadelphia	-12.0118
▁polónia	-12.0118
▁procópio	-12.0118
▁projéteis	-12.0118
▁psychundákis	-12.0118
▁pulmão	-12.0118
▁reprodutiva	-12.0118
▁respiratória	-12.0118
▁rodolfo	-12.0118
▁rodoviária	-12.0118
▁rodoviário	-12.0118
▁sistemática	-12.0118
▁sobrenatural	-12.0118
▁suplementar	-12.0118
▁tesoureiro	-12.0118
▁thammarat	-12.0118
▁thwaites	-12.0118
▁ultrassônicos	-12.0118
▁vinculada	-12.0118
▁wyoming	-12.0118
▁wânio	-12.0118
maillot	-12.0118
▁boletim	-12.0118
▁expulsão	-12.0118
▁flapper	-12.0118
▁hardware	-12.0118
▁harvard	-12.0118
▁magnética	-12.0118
▁patriarca	-12.0118
▁preferência	-12.0118
▁shelby	-12.0118
▁suplemento	-12.0118
▁suspende	-12.0118
▁contrária	-12.0118
▁friburgo	-12.0118
▁germânia	-12.0118
▁iraniana	-12.0118
▁obrigatori	-12.0118
▁palestina	-12.0118
▁paródia	-12.0118
▁ponderada	-12.0118
▁recebia	-12.0118
▁sampaio	-12.0118
▁sensibilidade	-12.0118
▁tornozelo	-12.0118
▁coriolis	-12.0118
▁detectar	-12.0118
▁dobermans	-12.0118
▁feminista	-12.0118
▁itabuna	-12.0118
▁lírico	-12.0118
▁poético	-12.0118
▁research	-12.0118
▁roscoe	-12.0118
▁unilever	-12.0118
▁íntimo	-12.0118
▁history	-12.0118
▁tijuca	-12.0118
▁1–0	-12.0118
▁chapéu	-12.0118
▁escapou	-12.0118
▁paladino	-12.0118
▁convenções	-12.0118
▁hispano	-12.0118
▁sérvia	-12.0118
▁agradável	-12.0118
▁falcão	-12.0118
▁prevenção	-12.0118
▁1995-96	-12.0118
▁cluster	-12.0118
▁irving	-12.0118
▁metrocles	-12.0118
▁sertanej	-12.0118
▁vítor	-12.0118
▁ávila	-12.0118
▁2001-02	-12.0118
▁2002-03	-12.0118
▁(2017)	-12.0118
▁castelhano	-12.0118
▁coliseu	-12.0118
▁radicais	-12.0118
▁vasili	-12.0118
▁esquecer	-12.0118
freedom	-12.0118
▁minerva	-12.0118
▁sombrio	-12.0118
▁arguido	-12.0118
▁qualificou	-12.0118
▁útero	-12.0118
▁académico	-12.0118
▁silenci	-12.0118
▁sabedoria	-12.0118
▁caravana	-12.0118
▁zotter	-12.0118
▁krabi	-12.0118
▁next	-12.0118
▁atirou	-12.0118
▁sinfónic	-12.0118
▁triple	-12.0118
▁sigilo	-12.0118
▁materno	-12.0118
▁abreviad	-12.0118
▁perturb	-12.0118
▁sessenta	-12.0118
▁goleada	-12.0118
▁soquete	-12.0118
▁vingar	-12.0118
▁arginin	-12.0118
▁reprisa	-12.0118
▁inevit	-12.0119
▁office	-12.0119
soprano	-12.0119
pivô	-12.0119
telessérie	-12.012
▁diverge	-12.012
▁irriga	-12.012
profecia	-12.0121
▁carrilh	-12.0122
▁memoráve	-12.0123
aircraft	-12.0123
concert	-12.0126
saxão	-12.0126
▁desmonta	-12.0126
folk	-12.0145
▁obtê	-12.0206
▁vascular	-12.0316
0–2	-12.0402
cionária	-12.0477
▁proximidade	-12.058
positores	-12.0684
▁interferi	-12.0686
telenovela	-12.0766
sucedido	-12.0766
deputado	-12.0766
compartilhamento	-12.0804
▁acumul	-12.0822
▁definitiva	-12.0875
marinheiro	-12.0883
▁substancial	-12.0887
/2006	-12.0887
construindo	-12.0887
culatello	-12.0887
filadélfia	-12.0887
gerenciamento	-12.0887
legitimidade	-12.0887
nanuqsaurus	-12.0887
resurrection	-12.0887
satisfação	-12.0887
tsesarevich	-12.0887
virgínia	-12.0887
▁aeronáutico	-12.0887
▁ailerons	-12.0887
▁aluízio	-12.0887
▁antecipado	-12.0887
▁arremesso	-12.0887
▁astronômica	-12.0887
▁astronômico	-12.0887
▁ateniense	-12.0887
▁auerbach	-12.0887
▁autólico	-12.0887
▁boelcke	-12.0887
▁bundesliga	-12.0887
▁caranguejo	-12.0887
▁catedrático	-12.0887
▁celebrado	-12.0887
▁cirúrgica	-12.0887
▁cleópatra	-12.0887
▁clérigo	-12.0887
▁competitivo	-12.0887
▁deathcore	-12.0887
▁distritais	-12.0887
▁divórcio	-12.0887
▁edgewater	-12.0887
▁entusiasm	-12.0887
▁epifânio	-12.0887
▁epíteto	-12.0887
▁esculpida	-12.0887
▁férrea	-12.0887
▁ghilardini	-12.0887
▁gladman	-12.0887
▁grizzlies	-12.0887
▁guerrilheira	-12.0887
▁guillaume	-12.0887
▁ibiúna	-12.0887
▁industriais	-12.0887
▁interrompido	-12.0887
▁irlandesa	-12.0887
▁jerônimo	-12.0887
▁kunimoto	-12.0887
▁laemmle	-12.0887
▁laércio	-12.0887
▁lehrman	-12.0887
▁leiomiomas	-12.0887
▁líbia	-12.0887
▁maracanã	-12.0887
▁maranhense	-12.0887
▁mergulha	-12.0887
▁muhammad	-12.0887
▁multicelulares	-12.0887
▁netherrealm	-12.0887
▁neurônios	-12.0887
▁notabilizou	-12.0887
▁objectivo	-12.0887
▁objecto	-12.0887
▁ornellas	-12.0887
▁padroeiro	-12.0887
▁pharrell	-12.0887
▁pilgrim	-12.0887
▁prayuth	-12.0887
▁privilégio	-12.0887
▁procissão	-12.0887
▁prostituta	-12.0887
▁protocolo	-12.0887
▁ptolomeu	-12.0887
▁péricles	-12.0887
▁racótis	-12.0887
▁reconstruir	-12.0887
▁relojoaria	-12.0887
▁resolvido	-12.0887
▁ressurreição	-12.0887
▁rômulo	-12.0887
▁schwarzenegger	-12.0887
▁sfakiá	-12.0887
▁silêncio	-12.0887
▁simultâne	-12.0887
▁sincronizado	-12.0887
▁stubby	-12.0887
▁sugestão	-12.0887
▁televisiva	-12.0887
▁travessia	-12.0887
▁vietnã	-12.0887
▁vocabulário	-12.0887
▁yardbirds	-12.0887
▁ângela	-12.0887
sadatsuna	-12.0887
▁"[[	-12.0887
▁2017–18	-12.0887
▁anchieta	-12.0887
▁criminais	-12.0887
▁descarrega	-12.0887
▁estacionado	-12.0887
▁firmou	-12.0887
▁gusmão	-12.0887
▁hershel	-12.0887
▁informática	-12.0887
▁lituânia	-12.0887
▁monumental	-12.0887
▁palatinado	-12.0887
▁patrícia	-12.0887
▁providência	-12.0887
▁supervisor	-12.0887
▁together	-12.0887
▁transmontano	-12.0887
▁wintgens	-12.0887
▁ósteno	-12.0887
▁coligações	-12.0887
▁confraria	-12.0887
▁essenciais	-12.0887
▁fiscais	-12.0887
▁katsudon	-12.0887
▁prussian	-12.0887
▁rudolf	-12.0887
▁serafim	-12.0887
▁suplência	-12.0887
▁taiwan	-12.0887
▁variáveis	-12.0887
▁ambrose	-12.0887
▁bristol	-12.0887
▁castilho	-12.0887
▁chowk	-12.0887
▁extingui	-12.0887
▁extremism	-12.0887
▁maquiagem	-12.0887
▁vilarejo	-12.0887
▁comunitário	-12.0887
▁baffin	-12.0887
▁marcopolo	-12.0887
lívio	-12.0887
shōnen	-12.0887
▁burundi	-12.0887
▁prairie	-12.0887
▁respetivo	-12.0887
▁spencer	-12.0887
▁caixão	-12.0887
▁espelho	-12.0887
▁wiseman	-12.0887
▁inundação	-12.0887
▁affair	-12.0887
▁padron	-12.0887
▁paisagens	-12.0887
▁ultrassom	-12.0887
quantitativ	-12.0887
▁budismo	-12.0887
▁watson	-12.0887
▁buarque	-12.0887
▁vicenza	-12.0887
▁bancária	-12.0887
▁revenge	-12.0887
▁substrato	-12.0887
▁vigário	-12.0887
▁(2010)	-12.0887
▁amparo	-12.0887
▁ringue	-12.0887
79360	-12.0887
▁formiga	-12.0887
▁carbono	-12.0887
õ	-12.9009
ö	-13.3584
ü	-13.3585
â	-13.3586
